{
  "version": "1.0",
  "truncation": {
    "direction": "Right",
    "max_length": 256,
    "strategy": "LongestFirst",
    "stride": 0
  },
  "padding": null,
  "added_tokens": [
    {
      "id": 0,
      "content": "<unk>",
      "single_word": false,
      "lstrip": false,
      "rstrip": false,
      "normalized": false,
      "special": true
    },
    {
      "id": 1,
      "content": "<s>",
      "single_word": false,
      "lstrip": false,
      "rstrip": false,
      "normalized": false,
      "special": true
    },
    {
      "id": 2,
      "content": "</s>",
      "single_word": false,
      "lstrip": false,
      "rstrip": false,
      "normalized": false,
      "special": true
    },
    {
      "id": 46099,
      "content": "<|sep|>",
      "single_word": false,
      "lstrip": false,
      "rstrip": false,
      "normalized": false,
      "special": true
    },
    {
      "id": 46100,
      "content": "<|endoftext|>",
      "single_word": false,
      "lstrip": false,
      "rstrip": false,
      "normalized": false,
      "special": true
    },
    {
      "id": 46101,
      "content": "<|acc|>",
      "single_word": false,
      "lstrip": false,
      "rstrip": false,
      "normalized": false,
      "special": true
    },
    {
      "id": 46102,
      "content": "<|rrn|>",
      "single_word": false,
      "lstrip": false,
      "rstrip": false,
      "normalized": false,
      "special": true
    },
    {
      "id": 46103,
      "content": "<|tel|>",
      "single_word": false,
      "lstrip": false,
      "rstrip": false,
      "normalized": false,
      "special": true
    },
    {
      "id": 46105,
      "content": "ᄀ",
      "single_word": false,
      "lstrip": false,
      "rstrip": false,
      "normalized": true,
      "special": false
    },
    {
      "id": 46107,
      "content": "ᆪ",
      "single_word": false,
      "lstrip": false,
      "rstrip": false,
      "normalized": true,
      "special": false
    },
    {
      "id": 46108,
      "content": "ᄂ",
      "single_word": false,
      "lstrip": false,
      "rstrip": false,
      "normalized": true,
      "special": false
    },
    {
      "id": 46109,
      "content": "ᆬ",
      "single_word": false,
      "lstrip": false,
      "rstrip": false,
      "normalized": true,
      "special": false
    },
    {
      "id": 46110,
      "content": "ᆭ",
      "single_word": false,
      "lstrip": false,
      "rstrip": false,
      "normalized": true,
      "special": false
    },
    {
      "id": 46111,
      "content": "ᄃ",
      "single_word": false,
      "lstrip": false,
      "rstrip": false,
      "normalized": true,
      "special": false
    },
    {
      "id": 46112,
      "content": "ᄄ",
      "single_word": false,
      "lstrip": false,
      "rstrip": false,
      "normalized": true,
      "special": false
    },
    {
      "id": 46113,
      "content": "ᄅ",
      "single_word": false,
      "lstrip": false,
      "rstrip": false,
      "normalized": true,
      "special": false
    },
    {
      "id": 46114,
      "content": "ᆰ",
      "single_word": false,
      "lstrip": false,
      "rstrip": false,
      "normalized": true,
      "special": false
    },
    {
      "id": 46115,
      "content": "ᆱ",
      "single_word": false,
      "lstrip": false,
      "rstrip": false,
      "normalized": true,
      "special": false
    },
    {
      "id": 46116,
      "content": "ᆲ",
      "single_word": false,
      "lstrip": false,
      "rstrip": false,
      "normalized": true,
      "special": false
    },
    {
      "id": 46117,
      "content": "ᆳ",
      "single_word": false,
      "lstrip": false,
      "rstrip": false,
      "normalized": true,
      "special": false
    },
    {
      "id": 46118,
      "content": "ᆴ",
      "single_word": false,
      "lstrip": false,
      "rstrip": false,
      "normalized": true,
      "special": false
    },
    {
      "id": 46119,
      "content": "ᆵ",
      "single_word": false,
      "lstrip": false,
      "rstrip": false,
      "normalized": true,
      "special": false
    },
    {
      "id": 46120,
      "content": "ᄚ",
      "single_word": false,
      "lstrip": false,
      "rstrip": false,
      "normalized": true,
      "special": false
    },
    {
      "id": 46121,
      "content": "ᄆ",
      "single_word": false,
      "lstrip": false,
      "rstrip": false,
      "normalized": true,
      "special": false
    },
    {
      "id": 46122,
      "content": "ᄇ",
      "single_word": false,
      "lstrip": false,
      "rstrip": false,
      "normalized": true,
      "special": false
    },
    {
      "id": 46123,
      "content": "ᄈ",
      "single_word": false,
      "lstrip": false,
      "rstrip": false,
      "normalized": true,
      "special": false
    },
    {
      "id": 46124,
      "content": "ᄡ",
      "single_word": false,
      "lstrip": false,
      "rstrip": false,
      "normalized": true,
      "special": false
    },
    {
      "id": 46125,
      "content": "ᄉ",
      "single_word": false,
      "lstrip": false,
      "rstrip": false,
      "normalized": true,
      "special": false
    },
    {
      "id": 46126,
      "content": "ᄊ",
      "single_word": false,
      "lstrip": false,
      "rstrip": false,
      "normalized": true,
      "special": false
    },
    {
      "id": 46127,
      "content": "ᄋ",
      "single_word": false,
      "lstrip": false,
      "rstrip": false,
      "normalized": true,
      "special": false
    },
    {
      "id": 46128,
      "content": "ᄌ",
      "single_word": false,
      "lstrip": false,
      "rstrip": false,
      "normalized": true,
      "special": false
    },
    {
      "id": 46129,
      "content": "ᄍ",
      "single_word": false,
      "lstrip": false,
      "rstrip": false,
      "normalized": true,
      "special": false
    },
    {
      "id": 46130,
      "content": "ᄎ",
      "single_word": false,
      "lstrip": false,
      "rstrip": false,
      "normalized": true,
      "special": false
    },
    {
      "id": 46131,
      "content": "ᄏ",
      "single_word": false,
      "lstrip": false,
      "rstrip": false,
      "normalized": true,
      "special": false
    },
    {
      "id": 46132,
      "content": "ᄐ",
      "single_word": false,
      "lstrip": false,
      "rstrip": false,
      "normalized": true,
      "special": false
    },
    {
      "id": 46133,
      "content": "ᄑ",
      "single_word": false,
      "lstrip": false,
      "rstrip": false,
      "normalized": true,
      "special": false
    },
    {
      "id": 46134,
      "content": "ᄒ",
      "single_word": false,
      "lstrip": false,
      "rstrip": false,
      "normalized": true,
      "special": false
    },
    {
      "id": 46135,
      "content": "ᅡ",
      "single_word": false,
      "lstrip": false,
      "rstrip": false,
      "normalized": true,
      "special": false
    },
    {
      "id": 46136,
      "content": "ᅢ",
      "single_word": false,
      "lstrip": false,
      "rstrip": false,
      "normalized": true,
      "special": false
    },
    {
      "id": 46137,
      "content": "ᅣ",
      "single_word": false,
      "lstrip": false,
      "rstrip": false,
      "normalized": true,
      "special": false
    },
    {
      "id": 46138,
      "content": "ᅤ",
      "single_word": false,
      "lstrip": false,
      "rstrip": false,
      "normalized": true,
      "special": false
    },
    {
      "id": 46139,
      "content": "ᅥ",
      "single_word": false,
      "lstrip": false,
      "rstrip": false,
      "normalized": true,
      "special": false
    },
    {
      "id": 46140,
      "content": "ᅦ",
      "single_word": false,
      "lstrip": false,
      "rstrip": false,
      "normalized": true,
      "special": false
    },
    {
      "id": 46141,
      "content": "ᅧ",
      "single_word": false,
      "lstrip": false,
      "rstrip": false,
      "normalized": true,
      "special": false
    },
    {
      "id": 46142,
      "content": "ᅨ",
      "single_word": false,
      "lstrip": false,
      "rstrip": false,
      "normalized": true,
      "special": false
    },
    {
      "id": 46143,
      "content": "ᅩ",
      "single_word": false,
      "lstrip": false,
      "rstrip": false,
      "normalized": true,
      "special": false
    },
    {
      "id": 46144,
      "content": "ᅪ",
      "single_word": false,
      "lstrip": false,
      "rstrip": false,
      "normalized": true,
      "special": false
    },
    {
      "id": 46145,
      "content": "ᅫ",
      "single_word": false,
      "lstrip": false,
      "rstrip": false,
      "normalized": true,
      "special": false
    },
    {
      "id": 46146,
      "content": "ᅬ",
      "single_word": false,
      "lstrip": false,
      "rstrip": false,
      "normalized": true,
      "special": false
    },
    {
      "id": 46147,
      "content": "ᅭ",
      "single_word": false,
      "lstrip": false,
      "rstrip": false,
      "normalized": true,
      "special": false
    },
    {
      "id": 46148,
      "content": "ᅮ",
      "single_word": false,
      "lstrip": false,
      "rstrip": false,
      "normalized": true,
      "special": false
    },
    {
      "id": 46149,
      "content": "ᅯ",
      "single_word": false,
      "lstrip": false,
      "rstrip": false,
      "normalized": true,
      "special": false
    },
    {
      "id": 46150,
      "content": "ᅰ",
      "single_word": false,
      "lstrip": false,
      "rstrip": false,
      "normalized": true,
      "special": false
    },
    {
      "id": 46151,
      "content": "ᅱ",
      "single_word": false,
      "lstrip": false,
      "rstrip": false,
      "normalized": true,
      "special": false
    },
    {
      "id": 46152,
      "content": "ᅲ",
      "single_word": false,
      "lstrip": false,
      "rstrip": false,
      "normalized": true,
      "special": false
    },
    {
      "id": 46153,
      "content": "ᅳ",
      "single_word": false,
      "lstrip": false,
      "rstrip": false,
      "normalized": true,
      "special": false
    },
    {
      "id": 46154,
      "content": "ᅴ",
      "single_word": false,
      "lstrip": false,
      "rstrip": false,
      "normalized": true,
      "special": false
    },
    {
      "id": 46156,
      "content": "ㄲ",
      "single_word": false,
      "lstrip": false,
      "rstrip": false,
      "normalized": true,
      "special": false
    },
    {
      "id": 46157,
      "content": "<unused0>",
      "single_word": false,
      "lstrip": false,
      "rstrip": false,
      "normalized": false,
      "special": true
    },
    {
      "id": 46158,
      "content": "<unused1>",
      "single_word": false,
      "lstrip": false,
      "rstrip": false,
      "normalized": false,
      "special": true
    },
    {
      "id": 46159,
      "content": "<unused2>",
      "single_word": false,
      "lstrip": false,
      "rstrip": false,
      "normalized": false,
      "special": true
    },
    {
      "id": 46160,
      "content": "<unused3>",
      "single_word": false,
      "lstrip": false,
      "rstrip": false,
      "normalized": false,
      "special": true
    },
    {
      "id": 46161,
      "content": "<unused4>",
      "single_word": false,
      "lstrip": false,
      "rstrip": false,
      "normalized": false,
      "special": true
    },
    {
      "id": 46162,
      "content": "<unused5>",
      "single_word": false,
      "lstrip": false,
      "rstrip": false,
      "normalized": false,
      "special": true
    },
    {
      "id": 46163,
      "content": "<unused6>",
      "single_word": false,
      "lstrip": false,
      "rstrip": false,
      "normalized": false,
      "special": true
    },
    {
      "id": 46164,
      "content": "<unused7>",
      "single_word": false,
      "lstrip": false,
      "rstrip": false,
      "normalized": false,
      "special": true
    },
    {
      "id": 46165,
      "content": "<unused8>",
      "single_word": false,
      "lstrip": false,
      "rstrip": false,
      "normalized": false,
      "special": true
    },
    {
      "id": 46166,
      "content": "<unused9>",
      "single_word": false,
      "lstrip": false,
      "rstrip": false,
      "normalized": false,
      "special": true
    },
    {
      "id": 46167,
      "content": "<unused10>",
      "single_word": false,
      "lstrip": false,
      "rstrip": false,
      "normalized": false,
      "special": true
    },
    {
      "id": 46168,
      "content": "<unused11>",
      "single_word": false,
      "lstrip": false,
      "rstrip": false,
      "normalized": false,
      "special": true
    },
    {
      "id": 46169,
      "content": "<unused12>",
      "single_word": false,
      "lstrip": false,
      "rstrip": false,
      "normalized": false,
      "special": true
    },
    {
      "id": 46170,
      "content": "<unused13>",
      "single_word": false,
      "lstrip": false,
      "rstrip": false,
      "normalized": false,
      "special": true
    },
    {
      "id": 46171,
      "content": "<unused14>",
      "single_word": false,
      "lstrip": false,
      "rstrip": false,
      "normalized": false,
      "special": true
    },
    {
      "id": 46172,
      "content": "<unused15>",
      "single_word": false,
      "lstrip": false,
      "rstrip": false,
      "normalized": false,
      "special": true
    },
    {
      "id": 46173,
      "content": "<unused16>",
      "single_word": false,
      "lstrip": false,
      "rstrip": false,
      "normalized": false,
      "special": true
    },
    {
      "id": 46174,
      "content": "<unused17>",
      "single_word": false,
      "lstrip": false,
      "rstrip": false,
      "normalized": false,
      "special": true
    },
    {
      "id": 46175,
      "content": "<unused18>",
      "single_word": false,
      "lstrip": false,
      "rstrip": false,
      "normalized": false,
      "special": true
    },
    {
      "id": 46176,
      "content": "<unused19>",
      "single_word": false,
      "lstrip": false,
      "rstrip": false,
      "normalized": false,
      "special": true
    },
    {
      "id": 46177,
      "content": "<unused20>",
      "single_word": false,
      "lstrip": false,
      "rstrip": false,
      "normalized": false,
      "special": true
    },
    {
      "id": 46178,
      "content": "<unused21>",
      "single_word": false,
      "lstrip": false,
      "rstrip": false,
      "normalized": false,
      "special": true
    },
    {
      "id": 46179,
      "content": "<unused22>",
      "single_word": false,
      "lstrip": false,
      "rstrip": false,
      "normalized": false,
      "special": true
    },
    {
      "id": 46180,
      "content": "<unused23>",
      "single_word": false,
      "lstrip": false,
      "rstrip": false,
      "normalized": false,
      "special": true
    },
    {
      "id": 46181,
      "content": "<unused24>",
      "single_word": false,
      "lstrip": false,
      "rstrip": false,
      "normalized": false,
      "special": true
    },
    {
      "id": 46182,
      "content": "<unused25>",
      "single_word": false,
      "lstrip": false,
      "rstrip": false,
      "normalized": false,
      "special": true
    },
    {
      "id": 46183,
      "content": "<unused26>",
      "single_word": false,
      "lstrip": false,
      "rstrip": false,
      "normalized": false,
      "special": true
    },
    {
      "id": 46184,
      "content": "<unused27>",
      "single_word": false,
      "lstrip": false,
      "rstrip": false,
      "normalized": false,
      "special": true
    },
    {
      "id": 46185,
      "content": "<unused28>",
      "single_word": false,
      "lstrip": false,
      "rstrip": false,
      "normalized": false,
      "special": true
    },
    {
      "id": 46186,
      "content": "<unused29>",
      "single_word": false,
      "lstrip": false,
      "rstrip": false,
      "normalized": false,
      "special": true
    },
    {
      "id": 46187,
      "content": "<unused30>",
      "single_word": false,
      "lstrip": false,
      "rstrip": false,
      "normalized": false,
      "special": true
    },
    {
      "id": 46188,
      "content": "<unused31>",
      "single_word": false,
      "lstrip": false,
      "rstrip": false,
      "normalized": false,
      "special": true
    },
    {
      "id": 46189,
      "content": "<unused32>",
      "single_word": false,
      "lstrip": false,
      "rstrip": false,
      "normalized": false,
      "special": true
    },
    {
      "id": 46190,
      "content": "<unused33>",
      "single_word": false,
      "lstrip": false,
      "rstrip": false,
      "normalized": false,
      "special": true
    },
    {
      "id": 46191,
      "content": "<unused34>",
      "single_word": false,
      "lstrip": false,
      "rstrip": false,
      "normalized": false,
      "special": true
    },
    {
      "id": 46192,
      "content": "<unused35>",
      "single_word": false,
      "lstrip": false,
      "rstrip": false,
      "normalized": false,
      "special": true
    },
    {
      "id": 46193,
      "content": "<unused36>",
      "single_word": false,
      "lstrip": false,
      "rstrip": false,
      "normalized": false,
      "special": true
    },
    {
      "id": 46194,
      "content": "<unused37>",
      "single_word": false,
      "lstrip": false,
      "rstrip": false,
      "normalized": false,
      "special": true
    },
    {
      "id": 46195,
      "content": "<unused38>",
      "single_word": false,
      "lstrip": false,
      "rstrip": false,
      "normalized": false,
      "special": true
    },
    {
      "id": 46196,
      "content": "<unused39>",
      "single_word": false,
      "lstrip": false,
      "rstrip": false,
      "normalized": false,
      "special": true
    },
    {
      "id": 46197,
      "content": "<unused40>",
      "single_word": false,
      "lstrip": false,
      "rstrip": false,
      "normalized": false,
      "special": true
    },
    {
      "id": 46198,
      "content": "<unused41>",
      "single_word": false,
      "lstrip": false,
      "rstrip": false,
      "normalized": false,
      "special": true
    },
    {
      "id": 46199,
      "content": "<unused42>",
      "single_word": false,
      "lstrip": false,
      "rstrip": false,
      "normalized": false,
      "special": true
    },
    {
      "id": 46200,
      "content": "<unused43>",
      "single_word": false,
      "lstrip": false,
      "rstrip": false,
      "normalized": false,
      "special": true
    },
    {
      "id": 46201,
      "content": "<unused44>",
      "single_word": false,
      "lstrip": false,
      "rstrip": false,
      "normalized": false,
      "special": true
    },
    {
      "id": 46202,
      "content": "<unused45>",
      "single_word": false,
      "lstrip": false,
      "rstrip": false,
      "normalized": false,
      "special": true
    },
    {
      "id": 46203,
      "content": "<unused46>",
      "single_word": false,
      "lstrip": false,
      "rstrip": false,
      "normalized": false,
      "special": true
    },
    {
      "id": 46204,
      "content": "<unused47>",
      "single_word": false,
      "lstrip": false,
      "rstrip": false,
      "normalized": false,
      "special": true
    },
    {
      "id": 46205,
      "content": "<unused48>",
      "single_word": false,
      "lstrip": false,
      "rstrip": false,
      "normalized": false,
      "special": true
    },
    {
      "id": 46206,
      "content": "<unused49>",
      "single_word": false,
      "lstrip": false,
      "rstrip": false,
      "normalized": false,
      "special": true
    },
    {
      "id": 46207,
      "content": "<unused50>",
      "single_word": false,
      "lstrip": false,
      "rstrip": false,
      "normalized": false,
      "special": true
    },
    {
      "id": 46208,
      "content": "<unused51>",
      "single_word": false,
      "lstrip": false,
      "rstrip": false,
      "normalized": false,
      "special": true
    },
    {
      "id": 46209,
      "content": "<unused52>",
      "single_word": false,
      "lstrip": false,
      "rstrip": false,
      "normalized": false,
      "special": true
    },
    {
      "id": 46210,
      "content": "<unused53>",
      "single_word": false,
      "lstrip": false,
      "rstrip": false,
      "normalized": false,
      "special": true
    },
    {
      "id": 46211,
      "content": "<unused54>",
      "single_word": false,
      "lstrip": false,
      "rstrip": false,
      "normalized": false,
      "special": true
    },
    {
      "id": 46212,
      "content": "<unused55>",
      "single_word": false,
      "lstrip": false,
      "rstrip": false,
      "normalized": false,
      "special": true
    },
    {
      "id": 46213,
      "content": "<unused56>",
      "single_word": false,
      "lstrip": false,
      "rstrip": false,
      "normalized": false,
      "special": true
    },
    {
      "id": 46214,
      "content": "<unused57>",
      "single_word": false,
      "lstrip": false,
      "rstrip": false,
      "normalized": false,
      "special": true
    },
    {
      "id": 46215,
      "content": "<unused58>",
      "single_word": false,
      "lstrip": false,
      "rstrip": false,
      "normalized": false,
      "special": true
    },
    {
      "id": 46216,
      "content": "<unused59>",
      "single_word": false,
      "lstrip": false,
      "rstrip": false,
      "normalized": false,
      "special": true
    },
    {
      "id": 46217,
      "content": "<unused60>",
      "single_word": false,
      "lstrip": false,
      "rstrip": false,
      "normalized": false,
      "special": true
    },
    {
      "id": 46218,
      "content": "<unused61>",
      "single_word": false,
      "lstrip": false,
      "rstrip": false,
      "normalized": false,
      "special": true
    },
    {
      "id": 46219,
      "content": "<unused62>",
      "single_word": false,
      "lstrip": false,
      "rstrip": false,
      "normalized": false,
      "special": true
    },
    {
      "id": 46220,
      "content": "<unused63>",
      "single_word": false,
      "lstrip": false,
      "rstrip": false,
      "normalized": false,
      "special": true
    },
    {
      "id": 46221,
      "content": "<unused64>",
      "single_word": false,
      "lstrip": false,
      "rstrip": false,
      "normalized": false,
      "special": true
    },
    {
      "id": 46222,
      "content": "<unused65>",
      "single_word": false,
      "lstrip": false,
      "rstrip": false,
      "normalized": false,
      "special": true
    },
    {
      "id": 46223,
      "content": "<unused66>",
      "single_word": false,
      "lstrip": false,
      "rstrip": false,
      "normalized": false,
      "special": true
    },
    {
      "id": 46224,
      "content": "<unused67>",
      "single_word": false,
      "lstrip": false,
      "rstrip": false,
      "normalized": false,
      "special": true
    },
    {
      "id": 46225,
      "content": "<unused68>",
      "single_word": false,
      "lstrip": false,
      "rstrip": false,
      "normalized": false,
      "special": true
    },
    {
      "id": 46226,
      "content": "<unused69>",
      "single_word": false,
      "lstrip": false,
      "rstrip": false,
      "normalized": false,
      "special": true
    },
    {
      "id": 46227,
      "content": "<unused70>",
      "single_word": false,
      "lstrip": false,
      "rstrip": false,
      "normalized": false,
      "special": true
    },
    {
      "id": 46228,
      "content": "<unused71>",
      "single_word": false,
      "lstrip": false,
      "rstrip": false,
      "normalized": false,
      "special": true
    },
    {
      "id": 46229,
      "content": "<unused72>",
      "single_word": false,
      "lstrip": false,
      "rstrip": false,
      "normalized": false,
      "special": true
    },
    {
      "id": 46230,
      "content": "<unused73>",
      "single_word": false,
      "lstrip": false,
      "rstrip": false,
      "normalized": false,
      "special": true
    },
    {
      "id": 46231,
      "content": "<unused74>",
      "single_word": false,
      "lstrip": false,
      "rstrip": false,
      "normalized": false,
      "special": true
    },
    {
      "id": 46232,
      "content": "<unused75>",
      "single_word": false,
      "lstrip": false,
      "rstrip": false,
      "normalized": false,
      "special": true
    },
    {
      "id": 46233,
      "content": "<unused76>",
      "single_word": false,
      "lstrip": false,
      "rstrip": false,
      "normalized": false,
      "special": true
    },
    {
      "id": 46234,
      "content": "<unused77>",
      "single_word": false,
      "lstrip": false,
      "rstrip": false,
      "normalized": false,
      "special": true
    },
    {
      "id": 46235,
      "content": "<unused78>",
      "single_word": false,
      "lstrip": false,
      "rstrip": false,
      "normalized": false,
      "special": true
    },
    {
      "id": 46236,
      "content": "<unused79>",
      "single_word": false,
      "lstrip": false,
      "rstrip": false,
      "normalized": false,
      "special": true
    },
    {
      "id": 46237,
      "content": "<unused80>",
      "single_word": false,
      "lstrip": false,
      "rstrip": false,
      "normalized": false,
      "special": true
    },
    {
      "id": 46238,
      "content": "<unused81>",
      "single_word": false,
      "lstrip": false,
      "rstrip": false,
      "normalized": false,
      "special": true
    },
    {
      "id": 46239,
      "content": "<unused82>",
      "single_word": false,
      "lstrip": false,
      "rstrip": false,
      "normalized": false,
      "special": true
    },
    {
      "id": 46240,
      "content": "<unused83>",
      "single_word": false,
      "lstrip": false,
      "rstrip": false,
      "normalized": false,
      "special": true
    },
    {
      "id": 46241,
      "content": "<unused84>",
      "single_word": false,
      "lstrip": false,
      "rstrip": false,
      "normalized": false,
      "special": true
    },
    {
      "id": 46242,
      "content": "<unused85>",
      "single_word": false,
      "lstrip": false,
      "rstrip": false,
      "normalized": false,
      "special": true
    },
    {
      "id": 46243,
      "content": "<unused86>",
      "single_word": false,
      "lstrip": false,
      "rstrip": false,
      "normalized": false,
      "special": true
    },
    {
      "id": 46244,
      "content": "<unused87>",
      "single_word": false,
      "lstrip": false,
      "rstrip": false,
      "normalized": false,
      "special": true
    },
    {
      "id": 46245,
      "content": "<unused88>",
      "single_word": false,
      "lstrip": false,
      "rstrip": false,
      "normalized": false,
      "special": true
    },
    {
      "id": 46246,
      "content": "<unused89>",
      "single_word": false,
      "lstrip": false,
      "rstrip": false,
      "normalized": false,
      "special": true
    },
    {
      "id": 46247,
      "content": "<unused90>",
      "single_word": false,
      "lstrip": false,
      "rstrip": false,
      "normalized": false,
      "special": true
    },
    {
      "id": 46248,
      "content": "<unused91>",
      "single_word": false,
      "lstrip": false,
      "rstrip": false,
      "normalized": false,
      "special": true
    },
    {
      "id": 46249,
      "content": "<unused92>",
      "single_word": false,
      "lstrip": false,
      "rstrip": false,
      "normalized": false,
      "special": true
    },
    {
      "id": 46250,
      "content": "<unused93>",
      "single_word": false,
      "lstrip": false,
      "rstrip": false,
      "normalized": false,
      "special": true
    },
    {
      "id": 46251,
      "content": "<unused94>",
      "single_word": false,
      "lstrip": false,
      "rstrip": false,
      "normalized": false,
      "special": true
    },
    {
      "id": 46252,
      "content": "<unused95>",
      "single_word": false,
      "lstrip": false,
      "rstrip": false,
      "normalized": false,
      "special": true
    },
    {
      "id": 46253,
      "content": "<unused96>",
      "single_word": false,
      "lstrip": false,
      "rstrip": false,
      "normalized": false,
      "special": true
    },
    {
      "id": 46254,
      "content": "<unused97>",
      "single_word": false,
      "lstrip": false,
      "rstrip": false,
      "normalized": false,
      "special": true
    },
    {
      "id": 46255,
      "content": "<unused98>",
      "single_word": false,
      "lstrip": false,
      "rstrip": false,
      "normalized": false,
      "special": true
    },
    {
      "id": 46256,
      "content": "<unused99>",
      "single_word": false,
      "lstrip": false,
      "rstrip": false,
      "normalized": false,
      "special": true
    },
    {
      "id": 46257,
      "content": "<unused100>",
      "single_word": false,
      "lstrip": false,
      "rstrip": false,
      "normalized": false,
      "special": true
    },
    {
      "id": 46258,
      "content": "<unused101>",
      "single_word": false,
      "lstrip": false,
      "rstrip": false,
      "normalized": false,
      "special": true
    },
    {
      "id": 46259,
      "content": "<unused102>",
      "single_word": false,
      "lstrip": false,
      "rstrip": false,
      "normalized": false,
      "special": true
    },
    {
      "id": 46260,
      "content": "<unused103>",
      "single_word": false,
      "lstrip": false,
      "rstrip": false,
      "normalized": false,
      "special": true
    },
    {
      "id": 46261,
      "content": "<unused104>",
      "single_word": false,
      "lstrip": false,
      "rstrip": false,
      "normalized": false,
      "special": true
    },
    {
      "id": 46262,
      "content": "<unused105>",
      "single_word": false,
      "lstrip": false,
      "rstrip": false,
      "normalized": false,
      "special": true
    },
    {
      "id": 46263,
      "content": "<unused106>",
      "single_word": false,
      "lstrip": false,
      "rstrip": false,
      "normalized": false,
      "special": true
    },
    {
      "id": 46264,
      "content": "<unused107>",
      "single_word": false,
      "lstrip": false,
      "rstrip": false,
      "normalized": false,
      "special": true
    },
    {
      "id": 46265,
      "content": "<unused108>",
      "single_word": false,
      "lstrip": false,
      "rstrip": false,
      "normalized": false,
      "special": true
    },
    {
      "id": 46266,
      "content": "<unused109>",
      "single_word": false,
      "lstrip": false,
      "rstrip": false,
      "normalized": false,
      "special": true
    },
    {
      "id": 46267,
      "content": "<unused110>",
      "single_word": false,
      "lstrip": false,
      "rstrip": false,
      "normalized": false,
      "special": true
    },
    {
      "id": 46268,
      "content": "<unused111>",
      "single_word": false,
      "lstrip": false,
      "rstrip": false,
      "normalized": false,
      "special": true
    },
    {
      "id": 46269,
      "content": "<unused112>",
      "single_word": false,
      "lstrip": false,
      "rstrip": false,
      "normalized": false,
      "special": true
    },
    {
      "id": 46270,
      "content": "<unused113>",
      "single_word": false,
      "lstrip": false,
      "rstrip": false,
      "normalized": false,
      "special": true
    },
    {
      "id": 46271,
      "content": "<unused114>",
      "single_word": false,
      "lstrip": false,
      "rstrip": false,
      "normalized": false,
      "special": true
    },
    {
      "id": 46272,
      "content": "<unused115>",
      "single_word": false,
      "lstrip": false,
      "rstrip": false,
      "normalized": false,
      "special": true
    },
    {
      "id": 46273,
      "content": "<unused116>",
      "single_word": false,
      "lstrip": false,
      "rstrip": false,
      "normalized": false,
      "special": true
    },
    {
      "id": 46274,
      "content": "<unused117>",
      "single_word": false,
      "lstrip": false,
      "rstrip": false,
      "normalized": false,
      "special": true
    },
    {
      "id": 46275,
      "content": "<unused118>",
      "single_word": false,
      "lstrip": false,
      "rstrip": false,
      "normalized": false,
      "special": true
    },
    {
      "id": 46276,
      "content": "<unused119>",
      "single_word": false,
      "lstrip": false,
      "rstrip": false,
      "normalized": false,
      "special": true
    },
    {
      "id": 46277,
      "content": "<unused120>",
      "single_word": false,
      "lstrip": false,
      "rstrip": false,
      "normalized": false,
      "special": true
    },
    {
      "id": 46278,
      "content": "<unused121>",
      "single_word": false,
      "lstrip": false,
      "rstrip": false,
      "normalized": false,
      "special": true
    },
    {
      "id": 46279,
      "content": "<unused122>",
      "single_word": false,
      "lstrip": false,
      "rstrip": false,
      "normalized": false,
      "special": true
    },
    {
      "id": 46280,
      "content": "<unused123>",
      "single_word": false,
      "lstrip": false,
      "rstrip": false,
      "normalized": false,
      "special": true
    },
    {
      "id": 46281,
      "content": "<unused124>",
      "single_word": false,
      "lstrip": false,
      "rstrip": false,
      "normalized": false,
      "special": true
    },
    {
      "id": 46282,
      "content": "<unused125>",
      "single_word": false,
      "lstrip": false,
      "rstrip": false,
      "normalized": false,
      "special": true
    },
    {
      "id": 46283,
      "content": "<unused126>",
      "single_word": false,
      "lstrip": false,
      "rstrip": false,
      "normalized": false,
      "special": true
    },
    {
      "id": 46284,
      "content": "<unused127>",
      "single_word": false,
      "lstrip": false,
      "rstrip": false,
      "normalized": false,
      "special": true
    },
    {
      "id": 46285,
      "content": "<unused128>",
      "single_word": false,
      "lstrip": false,
      "rstrip": false,
      "normalized": false,
      "special": true
    },
    {
      "id": 46286,
      "content": "<unused129>",
      "single_word": false,
      "lstrip": false,
      "rstrip": false,
      "normalized": false,
      "special": true
    },
    {
      "id": 46287,
      "content": "<unused130>",
      "single_word": false,
      "lstrip": false,
      "rstrip": false,
      "normalized": false,
      "special": true
    },
    {
      "id": 46288,
      "content": "<unused131>",
      "single_word": false,
      "lstrip": false,
      "rstrip": false,
      "normalized": false,
      "special": true
    },
    {
      "id": 46289,
      "content": "<unused132>",
      "single_word": false,
      "lstrip": false,
      "rstrip": false,
      "normalized": false,
      "special": true
    },
    {
      "id": 46290,
      "content": "<unused133>",
      "single_word": false,
      "lstrip": false,
      "rstrip": false,
      "normalized": false,
      "special": true
    },
    {
      "id": 46291,
      "content": "<unused134>",
      "single_word": false,
      "lstrip": false,
      "rstrip": false,
      "normalized": false,
      "special": true
    },
    {
      "id": 46292,
      "content": "<unused135>",
      "single_word": false,
      "lstrip": false,
      "rstrip": false,
      "normalized": false,
      "special": true
    },
    {
      "id": 46293,
      "content": "<unused136>",
      "single_word": false,
      "lstrip": false,
      "rstrip": false,
      "normalized": false,
      "special": true
    },
    {
      "id": 46294,
      "content": "<unused137>",
      "single_word": false,
      "lstrip": false,
      "rstrip": false,
      "normalized": false,
      "special": true
    },
    {
      "id": 46295,
      "content": "<unused138>",
      "single_word": false,
      "lstrip": false,
      "rstrip": false,
      "normalized": false,
      "special": true
    },
    {
      "id": 46296,
      "content": "<unused139>",
      "single_word": false,
      "lstrip": false,
      "rstrip": false,
      "normalized": false,
      "special": true
    },
    {
      "id": 46297,
      "content": "<unused140>",
      "single_word": false,
      "lstrip": false,
      "rstrip": false,
      "normalized": false,
      "special": true
    },
    {
      "id": 46298,
      "content": "<unused141>",
      "single_word": false,
      "lstrip": false,
      "rstrip": false,
      "normalized": false,
      "special": true
    },
    {
      "id": 46299,
      "content": "<unused142>",
      "single_word": false,
      "lstrip": false,
      "rstrip": false,
      "normalized": false,
      "special": true
    },
    {
      "id": 46300,
      "content": "<unused143>",
      "single_word": false,
      "lstrip": false,
      "rstrip": false,
      "normalized": false,
      "special": true
    },
    {
      "id": 46301,
      "content": "<unused144>",
      "single_word": false,
      "lstrip": false,
      "rstrip": false,
      "normalized": false,
      "special": true
    },
    {
      "id": 46302,
      "content": "<unused145>",
      "single_word": false,
      "lstrip": false,
      "rstrip": false,
      "normalized": false,
      "special": true
    },
    {
      "id": 46303,
      "content": "<unused146>",
      "single_word": false,
      "lstrip": false,
      "rstrip": false,
      "normalized": false,
      "special": true
    },
    {
      "id": 46304,
      "content": "<unused147>",
      "single_word": false,
      "lstrip": false,
      "rstrip": false,
      "normalized": false,
      "special": true
    },
    {
      "id": 46305,
      "content": "<unused148>",
      "single_word": false,
      "lstrip": false,
      "rstrip": false,
      "normalized": false,
      "special": true
    },
    {
      "id": 46306,
      "content": "<unused149>",
      "single_word": false,
      "lstrip": false,
      "rstrip": false,
      "normalized": false,
      "special": true
    },
    {
      "id": 46307,
      "content": "<unused150>",
      "single_word": false,
      "lstrip": false,
      "rstrip": false,
      "normalized": false,
      "special": true
    },
    {
      "id": 46308,
      "content": "<unused151>",
      "single_word": false,
      "lstrip": false,
      "rstrip": false,
      "normalized": false,
      "special": true
    },
    {
      "id": 46309,
      "content": "<unused152>",
      "single_word": false,
      "lstrip": false,
      "rstrip": false,
      "normalized": false,
      "special": true
    },
    {
      "id": 46310,
      "content": "<unused153>",
      "single_word": false,
      "lstrip": false,
      "rstrip": false,
      "normalized": false,
      "special": true
    },
    {
      "id": 46311,
      "content": "<unused154>",
      "single_word": false,
      "lstrip": false,
      "rstrip": false,
      "normalized": false,
      "special": true
    },
    {
      "id": 46312,
      "content": "<unused155>",
      "single_word": false,
      "lstrip": false,
      "rstrip": false,
      "normalized": false,
      "special": true
    },
    {
      "id": 46313,
      "content": "<unused156>",
      "single_word": false,
      "lstrip": false,
      "rstrip": false,
      "normalized": false,
      "special": true
    },
    {
      "id": 46314,
      "content": "<unused157>",
      "single_word": false,
      "lstrip": false,
      "rstrip": false,
      "normalized": false,
      "special": true
    },
    {
      "id": 46315,
      "content": "<unused158>",
      "single_word": false,
      "lstrip": false,
      "rstrip": false,
      "normalized": false,
      "special": true
    },
    {
      "id": 46316,
      "content": "<unused159>",
      "single_word": false,
      "lstrip": false,
      "rstrip": false,
      "normalized": false,
      "special": true
    },
    {
      "id": 46317,
      "content": "<unused160>",
      "single_word": false,
      "lstrip": false,
      "rstrip": false,
      "normalized": false,
      "special": true
    },
    {
      "id": 46318,
      "content": "<unused161>",
      "single_word": false,
      "lstrip": false,
      "rstrip": false,
      "normalized": false,
      "special": true
    },
    {
      "id": 46319,
      "content": "<unused162>",
      "single_word": false,
      "lstrip": false,
      "rstrip": false,
      "normalized": false,
      "special": true
    },
    {
      "id": 46320,
      "content": "<unused163>",
      "single_word": false,
      "lstrip": false,
      "rstrip": false,
      "normalized": false,
      "special": true
    },
    {
      "id": 46321,
      "content": "<unused164>",
      "single_word": false,
      "lstrip": false,
      "rstrip": false,
      "normalized": false,
      "special": true
    },
    {
      "id": 46322,
      "content": "<unused165>",
      "single_word": false,
      "lstrip": false,
      "rstrip": false,
      "normalized": false,
      "special": true
    },
    {
      "id": 46323,
      "content": "<unused166>",
      "single_word": false,
      "lstrip": false,
      "rstrip": false,
      "normalized": false,
      "special": true
    },
    {
      "id": 46324,
      "content": "<unused167>",
      "single_word": false,
      "lstrip": false,
      "rstrip": false,
      "normalized": false,
      "special": true
    },
    {
      "id": 46325,
      "content": "<unused168>",
      "single_word": false,
      "lstrip": false,
      "rstrip": false,
      "normalized": false,
      "special": true
    },
    {
      "id": 46326,
      "content": "<unused169>",
      "single_word": false,
      "lstrip": false,
      "rstrip": false,
      "normalized": false,
      "special": true
    },
    {
      "id": 46327,
      "content": "<unused170>",
      "single_word": false,
      "lstrip": false,
      "rstrip": false,
      "normalized": false,
      "special": true
    },
    {
      "id": 46328,
      "content": "<unused171>",
      "single_word": false,
      "lstrip": false,
      "rstrip": false,
      "normalized": false,
      "special": true
    },
    {
      "id": 46329,
      "content": "<unused172>",
      "single_word": false,
      "lstrip": false,
      "rstrip": false,
      "normalized": false,
      "special": true
    },
    {
      "id": 46330,
      "content": "<unused173>",
      "single_word": false,
      "lstrip": false,
      "rstrip": false,
      "normalized": false,
      "special": true
    },
    {
      "id": 46331,
      "content": "<unused174>",
      "single_word": false,
      "lstrip": false,
      "rstrip": false,
      "normalized": false,
      "special": true
    },
    {
      "id": 46332,
      "content": "<unused175>",
      "single_word": false,
      "lstrip": false,
      "rstrip": false,
      "normalized": false,
      "special": true
    },
    {
      "id": 46333,
      "content": "<unused176>",
      "single_word": false,
      "lstrip": false,
      "rstrip": false,
      "normalized": false,
      "special": true
    },
    {
      "id": 46334,
      "content": "<unused177>",
      "single_word": false,
      "lstrip": false,
      "rstrip": false,
      "normalized": false,
      "special": true
    },
    {
      "id": 46335,
      "content": "<unused178>",
      "single_word": false,
      "lstrip": false,
      "rstrip": false,
      "normalized": false,
      "special": true
    },
    {
      "id": 46336,
      "content": "<unused179>",
      "single_word": false,
      "lstrip": false,
      "rstrip": false,
      "normalized": false,
      "special": true
    },
    {
      "id": 46337,
      "content": "<unused180>",
      "single_word": false,
      "lstrip": false,
      "rstrip": false,
      "normalized": false,
      "special": true
    },
    {
      "id": 46338,
      "content": "<unused181>",
      "single_word": false,
      "lstrip": false,
      "rstrip": false,
      "normalized": false,
      "special": true
    },
    {
      "id": 46339,
      "content": "<unused182>",
      "single_word": false,
      "lstrip": false,
      "rstrip": false,
      "normalized": false,
      "special": true
    },
    {
      "id": 46340,
      "content": "<unused183>",
      "single_word": false,
      "lstrip": false,
      "rstrip": false,
      "normalized": false,
      "special": true
    },
    {
      "id": 46341,
      "content": "<unused184>",
      "single_word": false,
      "lstrip": false,
      "rstrip": false,
      "normalized": false,
      "special": true
    },
    {
      "id": 46342,
      "content": "<unused185>",
      "single_word": false,
      "lstrip": false,
      "rstrip": false,
      "normalized": false,
      "special": true
    },
    {
      "id": 46343,
      "content": "<unused186>",
      "single_word": false,
      "lstrip": false,
      "rstrip": false,
      "normalized": false,
      "special": true
    },
    {
      "id": 46344,
      "content": "<unused187>",
      "single_word": false,
      "lstrip": false,
      "rstrip": false,
      "normalized": false,
      "special": true
    },
    {
      "id": 46345,
      "content": "<unused188>",
      "single_word": false,
      "lstrip": false,
      "rstrip": false,
      "normalized": false,
      "special": true
    },
    {
      "id": 46346,
      "content": "<unused189>",
      "single_word": false,
      "lstrip": false,
      "rstrip": false,
      "normalized": false,
      "special": true
    },
    {
      "id": 46347,
      "content": "<unused190>",
      "single_word": false,
      "lstrip": false,
      "rstrip": false,
      "normalized": false,
      "special": true
    },
    {
      "id": 46348,
      "content": "<unused191>",
      "single_word": false,
      "lstrip": false,
      "rstrip": false,
      "normalized": false,
      "special": true
    },
    {
      "id": 46349,
      "content": "<unused192>",
      "single_word": false,
      "lstrip": false,
      "rstrip": false,
      "normalized": false,
      "special": true
    },
    {
      "id": 46350,
      "content": "<unused193>",
      "single_word": false,
      "lstrip": false,
      "rstrip": false,
      "normalized": false,
      "special": true
    },
    {
      "id": 46351,
      "content": "<unused194>",
      "single_word": false,
      "lstrip": false,
      "rstrip": false,
      "normalized": false,
      "special": true
    },
    {
      "id": 46352,
      "content": "<unused195>",
      "single_word": false,
      "lstrip": false,
      "rstrip": false,
      "normalized": false,
      "special": true
    },
    {
      "id": 46353,
      "content": "<unused196>",
      "single_word": false,
      "lstrip": false,
      "rstrip": false,
      "normalized": false,
      "special": true
    },
    {
      "id": 46354,
      "content": "<unused197>",
      "single_word": false,
      "lstrip": false,
      "rstrip": false,
      "normalized": false,
      "special": true
    },
    {
      "id": 46355,
      "content": "<unused198>",
      "single_word": false,
      "lstrip": false,
      "rstrip": false,
      "normalized": false,
      "special": true
    },
    {
      "id": 46356,
      "content": "<unused199>",
      "single_word": false,
      "lstrip": false,
      "rstrip": false,
      "normalized": false,
      "special": true
    },
    {
      "id": 46357,
      "content": "<unused200>",
      "single_word": false,
      "lstrip": false,
      "rstrip": false,
      "normalized": false,
      "special": true
    },
    {
      "id": 46358,
      "content": "<unused201>",
      "single_word": false,
      "lstrip": false,
      "rstrip": false,
      "normalized": false,
      "special": true
    },
    {
      "id": 46359,
      "content": "<unused202>",
      "single_word": false,
      "lstrip": false,
      "rstrip": false,
      "normalized": false,
      "special": true
    },
    {
      "id": 46360,
      "content": "<unused203>",
      "single_word": false,
      "lstrip": false,
      "rstrip": false,
      "normalized": false,
      "special": true
    },
    {
      "id": 46361,
      "content": "<unused204>",
      "single_word": false,
      "lstrip": false,
      "rstrip": false,
      "normalized": false,
      "special": true
    },
    {
      "id": 46362,
      "content": "<unused205>",
      "single_word": false,
      "lstrip": false,
      "rstrip": false,
      "normalized": false,
      "special": true
    },
    {
      "id": 46363,
      "content": "<unused206>",
      "single_word": false,
      "lstrip": false,
      "rstrip": false,
      "normalized": false,
      "special": true
    },
    {
      "id": 46364,
      "content": "<unused207>",
      "single_word": false,
      "lstrip": false,
      "rstrip": false,
      "normalized": false,
      "special": true
    },
    {
      "id": 46365,
      "content": "<unused208>",
      "single_word": false,
      "lstrip": false,
      "rstrip": false,
      "normalized": false,
      "special": true
    },
    {
      "id": 46366,
      "content": "<unused209>",
      "single_word": false,
      "lstrip": false,
      "rstrip": false,
      "normalized": false,
      "special": true
    },
    {
      "id": 46367,
      "content": "<unused210>",
      "single_word": false,
      "lstrip": false,
      "rstrip": false,
      "normalized": false,
      "special": true
    },
    {
      "id": 46368,
      "content": "<unused211>",
      "single_word": false,
      "lstrip": false,
      "rstrip": false,
      "normalized": false,
      "special": true
    },
    {
      "id": 46369,
      "content": "<unused212>",
      "single_word": false,
      "lstrip": false,
      "rstrip": false,
      "normalized": false,
      "special": true
    },
    {
      "id": 46370,
      "content": "<unused213>",
      "single_word": false,
      "lstrip": false,
      "rstrip": false,
      "normalized": false,
      "special": true
    },
    {
      "id": 46371,
      "content": "<unused214>",
      "single_word": false,
      "lstrip": false,
      "rstrip": false,
      "normalized": false,
      "special": true
    },
    {
      "id": 46372,
      "content": "<unused215>",
      "single_word": false,
      "lstrip": false,
      "rstrip": false,
      "normalized": false,
      "special": true
    },
    {
      "id": 46373,
      "content": "<unused216>",
      "single_word": false,
      "lstrip": false,
      "rstrip": false,
      "normalized": false,
      "special": true
    },
    {
      "id": 46374,
      "content": "<unused217>",
      "single_word": false,
      "lstrip": false,
      "rstrip": false,
      "normalized": false,
      "special": true
    },
    {
      "id": 46375,
      "content": "<unused218>",
      "single_word": false,
      "lstrip": false,
      "rstrip": false,
      "normalized": false,
      "special": true
    },
    {
      "id": 46376,
      "content": "<unused219>",
      "single_word": false,
      "lstrip": false,
      "rstrip": false,
      "normalized": false,
      "special": true
    },
    {
      "id": 46377,
      "content": "<unused220>",
      "single_word": false,
      "lstrip": false,
      "rstrip": false,
      "normalized": false,
      "special": true
    },
    {
      "id": 46378,
      "content": "<unused221>",
      "single_word": false,
      "lstrip": false,
      "rstrip": false,
      "normalized": false,
      "special": true
    },
    {
      "id": 46379,
      "content": "<unused222>",
      "single_word": false,
      "lstrip": false,
      "rstrip": false,
      "normalized": false,
      "special": true
    },
    {
      "id": 46380,
      "content": "<unused223>",
      "single_word": false,
      "lstrip": false,
      "rstrip": false,
      "normalized": false,
      "special": true
    },
    {
      "id": 46381,
      "content": "<unused224>",
      "single_word": false,
      "lstrip": false,
      "rstrip": false,
      "normalized": false,
      "special": true
    },
    {
      "id": 46382,
      "content": "<unused225>",
      "single_word": false,
      "lstrip": false,
      "rstrip": false,
      "normalized": false,
      "special": true
    },
    {
      "id": 46383,
      "content": "<unused226>",
      "single_word": false,
      "lstrip": false,
      "rstrip": false,
      "normalized": false,
      "special": true
    },
    {
      "id": 46384,
      "content": "<unused227>",
      "single_word": false,
      "lstrip": false,
      "rstrip": false,
      "normalized": false,
      "special": true
    },
    {
      "id": 46385,
      "content": "<unused228>",
      "single_word": false,
      "lstrip": false,
      "rstrip": false,
      "normalized": false,
      "special": true
    },
    {
      "id": 46386,
      "content": "<unused229>",
      "single_word": false,
      "lstrip": false,
      "rstrip": false,
      "normalized": false,
      "special": true
    },
    {
      "id": 46387,
      "content": "<unused230>",
      "single_word": false,
      "lstrip": false,
      "rstrip": false,
      "normalized": false,
      "special": true
    },
    {
      "id": 46388,
      "content": "<unused231>",
      "single_word": false,
      "lstrip": false,
      "rstrip": false,
      "normalized": false,
      "special": true
    },
    {
      "id": 46389,
      "content": "<unused232>",
      "single_word": false,
      "lstrip": false,
      "rstrip": false,
      "normalized": false,
      "special": true
    },
    {
      "id": 46390,
      "content": "<unused233>",
      "single_word": false,
      "lstrip": false,
      "rstrip": false,
      "normalized": false,
      "special": true
    },
    {
      "id": 46391,
      "content": "<unused234>",
      "single_word": false,
      "lstrip": false,
      "rstrip": false,
      "normalized": false,
      "special": true
    },
    {
      "id": 46392,
      "content": "<unused235>",
      "single_word": false,
      "lstrip": false,
      "rstrip": false,
      "normalized": false,
      "special": true
    },
    {
      "id": 46393,
      "content": "<unused236>",
      "single_word": false,
      "lstrip": false,
      "rstrip": false,
      "normalized": false,
      "special": true
    },
    {
      "id": 46394,
      "content": "<unused237>",
      "single_word": false,
      "lstrip": false,
      "rstrip": false,
      "normalized": false,
      "special": true
    },
    {
      "id": 46395,
      "content": "<unused238>",
      "single_word": false,
      "lstrip": false,
      "rstrip": false,
      "normalized": false,
      "special": true
    },
    {
      "id": 46396,
      "content": "<unused239>",
      "single_word": false,
      "lstrip": false,
      "rstrip": false,
      "normalized": false,
      "special": true
    },
    {
      "id": 46397,
      "content": "<unused240>",
      "single_word": false,
      "lstrip": false,
      "rstrip": false,
      "normalized": false,
      "special": true
    },
    {
      "id": 46398,
      "content": "<unused241>",
      "single_word": false,
      "lstrip": false,
      "rstrip": false,
      "normalized": false,
      "special": true
    },
    {
      "id": 46399,
      "content": "<unused242>",
      "single_word": false,
      "lstrip": false,
      "rstrip": false,
      "normalized": false,
      "special": true
    },
    {
      "id": 46400,
      "content": "<unused243>",
      "single_word": false,
      "lstrip": false,
      "rstrip": false,
      "normalized": false,
      "special": true
    },
    {
      "id": 46401,
      "content": "<unused244>",
      "single_word": false,
      "lstrip": false,
      "rstrip": false,
      "normalized": false,
      "special": true
    },
    {
      "id": 46402,
      "content": "<unused245>",
      "single_word": false,
      "lstrip": false,
      "rstrip": false,
      "normalized": false,
      "special": true
    },
    {
      "id": 46403,
      "content": "<unused246>",
      "single_word": false,
      "lstrip": false,
      "rstrip": false,
      "normalized": false,
      "special": true
    },
    {
      "id": 46404,
      "content": "<unused247>",
      "single_word": false,
      "lstrip": false,
      "rstrip": false,
      "normalized": false,
      "special": true
    },
    {
      "id": 46405,
      "content": "<unused248>",
      "single_word": false,
      "lstrip": false,
      "rstrip": false,
      "normalized": false,
      "special": true
    },
    {
      "id": 46406,
      "content": "<unused249>",
      "single_word": false,
      "lstrip": false,
      "rstrip": false,
      "normalized": false,
      "special": true
    },
    {
      "id": 46407,
      "content": "<unused250>",
      "single_word": false,
      "lstrip": false,
      "rstrip": false,
      "normalized": false,
      "special": true
    },
    {
      "id": 46408,
      "content": "<unused251>",
      "single_word": false,
      "lstrip": false,
      "rstrip": false,
      "normalized": false,
      "special": true
    },
    {
      "id": 46409,
      "content": "<unused252>",
      "single_word": false,
      "lstrip": false,
      "rstrip": false,
      "normalized": false,
      "special": true
    },
    {
      "id": 46410,
      "content": "<unused253>",
      "single_word": false,
      "lstrip": false,
      "rstrip": false,
      "normalized": false,
      "special": true
    },
    {
      "id": 46411,
      "content": "<unused254>",
      "single_word": false,
      "lstrip": false,
      "rstrip": false,
      "normalized": false,
      "special": true
    },
    {
      "id": 46412,
      "content": "<unused255>",
      "single_word": false,
      "lstrip": false,
      "rstrip": false,
      "normalized": false,
      "special": true
    },
    {
      "id": 46413,
      "content": "<unused256>",
      "single_word": false,
      "lstrip": false,
      "rstrip": false,
      "normalized": false,
      "special": true
    },
    {
      "id": 46414,
      "content": "<unused257>",
      "single_word": false,
      "lstrip": false,
      "rstrip": false,
      "normalized": false,
      "special": true
    },
    {
      "id": 46415,
      "content": "<unused258>",
      "single_word": false,
      "lstrip": false,
      "rstrip": false,
      "normalized": false,
      "special": true
    },
    {
      "id": 46416,
      "content": "<unused259>",
      "single_word": false,
      "lstrip": false,
      "rstrip": false,
      "normalized": false,
      "special": true
    },
    {
      "id": 46417,
      "content": "<unused260>",
      "single_word": false,
      "lstrip": false,
      "rstrip": false,
      "normalized": false,
      "special": true
    },
    {
      "id": 46418,
      "content": "<unused261>",
      "single_word": false,
      "lstrip": false,
      "rstrip": false,
      "normalized": false,
      "special": true
    },
    {
      "id": 46419,
      "content": "<unused262>",
      "single_word": false,
      "lstrip": false,
      "rstrip": false,
      "normalized": false,
      "special": true
    },
    {
      "id": 46420,
      "content": "<unused263>",
      "single_word": false,
      "lstrip": false,
      "rstrip": false,
      "normalized": false,
      "special": true
    },
    {
      "id": 46421,
      "content": "<unused264>",
      "single_word": false,
      "lstrip": false,
      "rstrip": false,
      "normalized": false,
      "special": true
    },
    {
      "id": 46422,
      "content": "<unused265>",
      "single_word": false,
      "lstrip": false,
      "rstrip": false,
      "normalized": false,
      "special": true
    },
    {
      "id": 46423,
      "content": "<unused266>",
      "single_word": false,
      "lstrip": false,
      "rstrip": false,
      "normalized": false,
      "special": true
    },
    {
      "id": 46424,
      "content": "<unused267>",
      "single_word": false,
      "lstrip": false,
      "rstrip": false,
      "normalized": false,
      "special": true
    },
    {
      "id": 46425,
      "content": "<unused268>",
      "single_word": false,
      "lstrip": false,
      "rstrip": false,
      "normalized": false,
      "special": true
    },
    {
      "id": 46426,
      "content": "<unused269>",
      "single_word": false,
      "lstrip": false,
      "rstrip": false,
      "normalized": false,
      "special": true
    },
    {
      "id": 46427,
      "content": "<unused270>",
      "single_word": false,
      "lstrip": false,
      "rstrip": false,
      "normalized": false,
      "special": true
    },
    {
      "id": 46428,
      "content": "<unused271>",
      "single_word": false,
      "lstrip": false,
      "rstrip": false,
      "normalized": false,
      "special": true
    },
    {
      "id": 46429,
      "content": "<unused272>",
      "single_word": false,
      "lstrip": false,
      "rstrip": false,
      "normalized": false,
      "special": true
    },
    {
      "id": 46430,
      "content": "<unused273>",
      "single_word": false,
      "lstrip": false,
      "rstrip": false,
      "normalized": false,
      "special": true
    },
    {
      "id": 46431,
      "content": "<unused274>",
      "single_word": false,
      "lstrip": false,
      "rstrip": false,
      "normalized": false,
      "special": true
    },
    {
      "id": 46432,
      "content": "<unused275>",
      "single_word": false,
      "lstrip": false,
      "rstrip": false,
      "normalized": false,
      "special": true
    },
    {
      "id": 46433,
      "content": "<unused276>",
      "single_word": false,
      "lstrip": false,
      "rstrip": false,
      "normalized": false,
      "special": true
    },
    {
      "id": 46434,
      "content": "<unused277>",
      "single_word": false,
      "lstrip": false,
      "rstrip": false,
      "normalized": false,
      "special": true
    },
    {
      "id": 46435,
      "content": "<unused278>",
      "single_word": false,
      "lstrip": false,
      "rstrip": false,
      "normalized": false,
      "special": true
    },
    {
      "id": 46436,
      "content": "<unused279>",
      "single_word": false,
      "lstrip": false,
      "rstrip": false,
      "normalized": false,
      "special": true
    },
    {
      "id": 46437,
      "content": "<unused280>",
      "single_word": false,
      "lstrip": false,
      "rstrip": false,
      "normalized": false,
      "special": true
    },
    {
      "id": 46438,
      "content": "<unused281>",
      "single_word": false,
      "lstrip": false,
      "rstrip": false,
      "normalized": false,
      "special": true
    },
    {
      "id": 46439,
      "content": "<unused282>",
      "single_word": false,
      "lstrip": false,
      "rstrip": false,
      "normalized": false,
      "special": true
    },
    {
      "id": 46440,
      "content": "<unused283>",
      "single_word": false,
      "lstrip": false,
      "rstrip": false,
      "normalized": false,
      "special": true
    },
    {
      "id": 46441,
      "content": "<unused284>",
      "single_word": false,
      "lstrip": false,
      "rstrip": false,
      "normalized": false,
      "special": true
    },
    {
      "id": 46442,
      "content": "<unused285>",
      "single_word": false,
      "lstrip": false,
      "rstrip": false,
      "normalized": false,
      "special": true
    },
    {
      "id": 46443,
      "content": "<unused286>",
      "single_word": false,
      "lstrip": false,
      "rstrip": false,
      "normalized": false,
      "special": true
    },
    {
      "id": 46444,
      "content": "<unused287>",
      "single_word": false,
      "lstrip": false,
      "rstrip": false,
      "normalized": false,
      "special": true
    },
    {
      "id": 46445,
      "content": "<unused288>",
      "single_word": false,
      "lstrip": false,
      "rstrip": false,
      "normalized": false,
      "special": true
    },
    {
      "id": 46446,
      "content": "<unused289>",
      "single_word": false,
      "lstrip": false,
      "rstrip": false,
      "normalized": false,
      "special": true
    },
    {
      "id": 46447,
      "content": "<unused290>",
      "single_word": false,
      "lstrip": false,
      "rstrip": false,
      "normalized": false,
      "special": true
    },
    {
      "id": 46448,
      "content": "<unused291>",
      "single_word": false,
      "lstrip": false,
      "rstrip": false,
      "normalized": false,
      "special": true
    },
    {
      "id": 46449,
      "content": "<unused292>",
      "single_word": false,
      "lstrip": false,
      "rstrip": false,
      "normalized": false,
      "special": true
    },
    {
      "id": 46450,
      "content": "<unused293>",
      "single_word": false,
      "lstrip": false,
      "rstrip": false,
      "normalized": false,
      "special": true
    },
    {
      "id": 46451,
      "content": "<unused294>",
      "single_word": false,
      "lstrip": false,
      "rstrip": false,
      "normalized": false,
      "special": true
    },
    {
      "id": 46452,
      "content": "<unused295>",
      "single_word": false,
      "lstrip": false,
      "rstrip": false,
      "normalized": false,
      "special": true
    },
    {
      "id": 46453,
      "content": "<unused296>",
      "single_word": false,
      "lstrip": false,
      "rstrip": false,
      "normalized": false,
      "special": true
    },
    {
      "id": 46454,
      "content": "<unused297>",
      "single_word": false,
      "lstrip": false,
      "rstrip": false,
      "normalized": false,
      "special": true
    },
    {
      "id": 46455,
      "content": "<unused298>",
      "single_word": false,
      "lstrip": false,
      "rstrip": false,
      "normalized": false,
      "special": true
    },
    {
      "id": 46456,
      "content": "<unused299>",
      "single_word": false,
      "lstrip": false,
      "rstrip": false,
      "normalized": false,
      "special": true
    },
    {
      "id": 46457,
      "content": "<unused300>",
      "single_word": false,
      "lstrip": false,
      "rstrip": false,
      "normalized": false,
      "special": true
    },
    {
      "id": 46458,
      "content": "<unused301>",
      "single_word": false,
      "lstrip": false,
      "rstrip": false,
      "normalized": false,
      "special": true
    },
    {
      "id": 46459,
      "content": "<unused302>",
      "single_word": false,
      "lstrip": false,
      "rstrip": false,
      "normalized": false,
      "special": true
    },
    {
      "id": 46460,
      "content": "<unused303>",
      "single_word": false,
      "lstrip": false,
      "rstrip": false,
      "normalized": false,
      "special": true
    },
    {
      "id": 46461,
      "content": "<unused304>",
      "single_word": false,
      "lstrip": false,
      "rstrip": false,
      "normalized": false,
      "special": true
    },
    {
      "id": 46462,
      "content": "<unused305>",
      "single_word": false,
      "lstrip": false,
      "rstrip": false,
      "normalized": false,
      "special": true
    },
    {
      "id": 46463,
      "content": "<unused306>",
      "single_word": false,
      "lstrip": false,
      "rstrip": false,
      "normalized": false,
      "special": true
    },
    {
      "id": 46464,
      "content": "<unused307>",
      "single_word": false,
      "lstrip": false,
      "rstrip": false,
      "normalized": false,
      "special": true
    },
    {
      "id": 46465,
      "content": "<unused308>",
      "single_word": false,
      "lstrip": false,
      "rstrip": false,
      "normalized": false,
      "special": true
    },
    {
      "id": 46466,
      "content": "<unused309>",
      "single_word": false,
      "lstrip": false,
      "rstrip": false,
      "normalized": false,
      "special": true
    },
    {
      "id": 46467,
      "content": "<unused310>",
      "single_word": false,
      "lstrip": false,
      "rstrip": false,
      "normalized": false,
      "special": true
    },
    {
      "id": 46468,
      "content": "<unused311>",
      "single_word": false,
      "lstrip": false,
      "rstrip": false,
      "normalized": false,
      "special": true
    },
    {
      "id": 46469,
      "content": "<unused312>",
      "single_word": false,
      "lstrip": false,
      "rstrip": false,
      "normalized": false,
      "special": true
    },
    {
      "id": 46470,
      "content": "<unused313>",
      "single_word": false,
      "lstrip": false,
      "rstrip": false,
      "normalized": false,
      "special": true
    },
    {
      "id": 46471,
      "content": "<unused314>",
      "single_word": false,
      "lstrip": false,
      "rstrip": false,
      "normalized": false,
      "special": true
    },
    {
      "id": 46472,
      "content": "<unused315>",
      "single_word": false,
      "lstrip": false,
      "rstrip": false,
      "normalized": false,
      "special": true
    },
    {
      "id": 46473,
      "content": "<unused316>",
      "single_word": false,
      "lstrip": false,
      "rstrip": false,
      "normalized": false,
      "special": true
    },
    {
      "id": 46474,
      "content": "<unused317>",
      "single_word": false,
      "lstrip": false,
      "rstrip": false,
      "normalized": false,
      "special": true
    },
    {
      "id": 46475,
      "content": "<unused318>",
      "single_word": false,
      "lstrip": false,
      "rstrip": false,
      "normalized": false,
      "special": true
    },
    {
      "id": 46476,
      "content": "<unused319>",
      "single_word": false,
      "lstrip": false,
      "rstrip": false,
      "normalized": false,
      "special": true
    },
    {
      "id": 46477,
      "content": "<unused320>",
      "single_word": false,
      "lstrip": false,
      "rstrip": false,
      "normalized": false,
      "special": true
    },
    {
      "id": 46478,
      "content": "<unused321>",
      "single_word": false,
      "lstrip": false,
      "rstrip": false,
      "normalized": false,
      "special": true
    },
    {
      "id": 46479,
      "content": "<unused322>",
      "single_word": false,
      "lstrip": false,
      "rstrip": false,
      "normalized": false,
      "special": true
    },
    {
      "id": 46480,
      "content": "<unused323>",
      "single_word": false,
      "lstrip": false,
      "rstrip": false,
      "normalized": false,
      "special": true
    },
    {
      "id": 46481,
      "content": "<unused324>",
      "single_word": false,
      "lstrip": false,
      "rstrip": false,
      "normalized": false,
      "special": true
    },
    {
      "id": 46482,
      "content": "<unused325>",
      "single_word": false,
      "lstrip": false,
      "rstrip": false,
      "normalized": false,
      "special": true
    },
    {
      "id": 46483,
      "content": "<unused326>",
      "single_word": false,
      "lstrip": false,
      "rstrip": false,
      "normalized": false,
      "special": true
    },
    {
      "id": 46484,
      "content": "<unused327>",
      "single_word": false,
      "lstrip": false,
      "rstrip": false,
      "normalized": false,
      "special": true
    },
    {
      "id": 46485,
      "content": "<unused328>",
      "single_word": false,
      "lstrip": false,
      "rstrip": false,
      "normalized": false,
      "special": true
    },
    {
      "id": 46486,
      "content": "<unused329>",
      "single_word": false,
      "lstrip": false,
      "rstrip": false,
      "normalized": false,
      "special": true
    },
    {
      "id": 46487,
      "content": "<unused330>",
      "single_word": false,
      "lstrip": false,
      "rstrip": false,
      "normalized": false,
      "special": true
    },
    {
      "id": 46488,
      "content": "<unused331>",
      "single_word": false,
      "lstrip": false,
      "rstrip": false,
      "normalized": false,
      "special": true
    },
    {
      "id": 46489,
      "content": "<unused332>",
      "single_word": false,
      "lstrip": false,
      "rstrip": false,
      "normalized": false,
      "special": true
    },
    {
      "id": 46490,
      "content": "<unused333>",
      "single_word": false,
      "lstrip": false,
      "rstrip": false,
      "normalized": false,
      "special": true
    },
    {
      "id": 46491,
      "content": "<unused334>",
      "single_word": false,
      "lstrip": false,
      "rstrip": false,
      "normalized": false,
      "special": true
    },
    {
      "id": 46492,
      "content": "<unused335>",
      "single_word": false,
      "lstrip": false,
      "rstrip": false,
      "normalized": false,
      "special": true
    },
    {
      "id": 46493,
      "content": "<unused336>",
      "single_word": false,
      "lstrip": false,
      "rstrip": false,
      "normalized": false,
      "special": true
    },
    {
      "id": 46494,
      "content": "<unused337>",
      "single_word": false,
      "lstrip": false,
      "rstrip": false,
      "normalized": false,
      "special": true
    },
    {
      "id": 46495,
      "content": "<unused338>",
      "single_word": false,
      "lstrip": false,
      "rstrip": false,
      "normalized": false,
      "special": true
    },
    {
      "id": 46496,
      "content": "<unused339>",
      "single_word": false,
      "lstrip": false,
      "rstrip": false,
      "normalized": false,
      "special": true
    },
    {
      "id": 46497,
      "content": "<unused340>",
      "single_word": false,
      "lstrip": false,
      "rstrip": false,
      "normalized": false,
      "special": true
    },
    {
      "id": 46498,
      "content": "<unused341>",
      "single_word": false,
      "lstrip": false,
      "rstrip": false,
      "normalized": false,
      "special": true
    },
    {
      "id": 46499,
      "content": "<unused342>",
      "single_word": false,
      "lstrip": false,
      "rstrip": false,
      "normalized": false,
      "special": true
    },
    {
      "id": 46500,
      "content": "<unused343>",
      "single_word": false,
      "lstrip": false,
      "rstrip": false,
      "normalized": false,
      "special": true
    },
    {
      "id": 46501,
      "content": "<unused344>",
      "single_word": false,
      "lstrip": false,
      "rstrip": false,
      "normalized": false,
      "special": true
    },
    {
      "id": 46502,
      "content": "<unused345>",
      "single_word": false,
      "lstrip": false,
      "rstrip": false,
      "normalized": false,
      "special": true
    },
    {
      "id": 46503,
      "content": "<unused346>",
      "single_word": false,
      "lstrip": false,
      "rstrip": false,
      "normalized": false,
      "special": true
    },
    {
      "id": 46504,
      "content": "<unused347>",
      "single_word": false,
      "lstrip": false,
      "rstrip": false,
      "normalized": false,
      "special": true
    },
    {
      "id": 46505,
      "content": "<unused348>",
      "single_word": false,
      "lstrip": false,
      "rstrip": false,
      "normalized": false,
      "special": true
    },
    {
      "id": 46506,
      "content": "<unused349>",
      "single_word": false,
      "lstrip": false,
      "rstrip": false,
      "normalized": false,
      "special": true
    },
    {
      "id": 46507,
      "content": "<unused350>",
      "single_word": false,
      "lstrip": false,
      "rstrip": false,
      "normalized": false,
      "special": true
    },
    {
      "id": 46508,
      "content": "<unused351>",
      "single_word": false,
      "lstrip": false,
      "rstrip": false,
      "normalized": false,
      "special": true
    },
    {
      "id": 46509,
      "content": "<unused352>",
      "single_word": false,
      "lstrip": false,
      "rstrip": false,
      "normalized": false,
      "special": true
    },
    {
      "id": 46510,
      "content": "<unused353>",
      "single_word": false,
      "lstrip": false,
      "rstrip": false,
      "normalized": false,
      "special": true
    },
    {
      "id": 46511,
      "content": "<unused354>",
      "single_word": false,
      "lstrip": false,
      "rstrip": false,
      "normalized": false,
      "special": true
    },
    {
      "id": 46512,
      "content": "<unused355>",
      "single_word": false,
      "lstrip": false,
      "rstrip": false,
      "normalized": false,
      "special": true
    },
    {
      "id": 46513,
      "content": "<unused356>",
      "single_word": false,
      "lstrip": false,
      "rstrip": false,
      "normalized": false,
      "special": true
    },
    {
      "id": 46514,
      "content": "<unused357>",
      "single_word": false,
      "lstrip": false,
      "rstrip": false,
      "normalized": false,
      "special": true
    },
    {
      "id": 46515,
      "content": "<unused358>",
      "single_word": false,
      "lstrip": false,
      "rstrip": false,
      "normalized": false,
      "special": true
    },
    {
      "id": 46516,
      "content": "<unused359>",
      "single_word": false,
      "lstrip": false,
      "rstrip": false,
      "normalized": false,
      "special": true
    },
    {
      "id": 46517,
      "content": "<unused360>",
      "single_word": false,
      "lstrip": false,
      "rstrip": false,
      "normalized": false,
      "special": true
    },
    {
      "id": 46518,
      "content": "<unused361>",
      "single_word": false,
      "lstrip": false,
      "rstrip": false,
      "normalized": false,
      "special": true
    },
    {
      "id": 46519,
      "content": "<unused362>",
      "single_word": false,
      "lstrip": false,
      "rstrip": false,
      "normalized": false,
      "special": true
    },
    {
      "id": 46520,
      "content": "<unused363>",
      "single_word": false,
      "lstrip": false,
      "rstrip": false,
      "normalized": false,
      "special": true
    },
    {
      "id": 46521,
      "content": "<unused364>",
      "single_word": false,
      "lstrip": false,
      "rstrip": false,
      "normalized": false,
      "special": true
    },
    {
      "id": 46522,
      "content": "<unused365>",
      "single_word": false,
      "lstrip": false,
      "rstrip": false,
      "normalized": false,
      "special": true
    },
    {
      "id": 46523,
      "content": "<unused366>",
      "single_word": false,
      "lstrip": false,
      "rstrip": false,
      "normalized": false,
      "special": true
    },
    {
      "id": 46524,
      "content": "<unused367>",
      "single_word": false,
      "lstrip": false,
      "rstrip": false,
      "normalized": false,
      "special": true
    },
    {
      "id": 46525,
      "content": "<unused368>",
      "single_word": false,
      "lstrip": false,
      "rstrip": false,
      "normalized": false,
      "special": true
    },
    {
      "id": 46526,
      "content": "<unused369>",
      "single_word": false,
      "lstrip": false,
      "rstrip": false,
      "normalized": false,
      "special": true
    },
    {
      "id": 46527,
      "content": "<unused370>",
      "single_word": false,
      "lstrip": false,
      "rstrip": false,
      "normalized": false,
      "special": true
    },
    {
      "id": 46528,
      "content": "<unused371>",
      "single_word": false,
      "lstrip": false,
      "rstrip": false,
      "normalized": false,
      "special": true
    },
    {
      "id": 46529,
      "content": "<unused372>",
      "single_word": false,
      "lstrip": false,
      "rstrip": false,
      "normalized": false,
      "special": true
    },
    {
      "id": 46530,
      "content": "<unused373>",
      "single_word": false,
      "lstrip": false,
      "rstrip": false,
      "normalized": false,
      "special": true
    },
    {
      "id": 46531,
      "content": "<unused374>",
      "single_word": false,
      "lstrip": false,
      "rstrip": false,
      "normalized": false,
      "special": true
    },
    {
      "id": 46532,
      "content": "<unused375>",
      "single_word": false,
      "lstrip": false,
      "rstrip": false,
      "normalized": false,
      "special": true
    },
    {
      "id": 46533,
      "content": "<unused376>",
      "single_word": false,
      "lstrip": false,
      "rstrip": false,
      "normalized": false,
      "special": true
    },
    {
      "id": 46534,
      "content": "<unused377>",
      "single_word": false,
      "lstrip": false,
      "rstrip": false,
      "normalized": false,
      "special": true
    },
    {
      "id": 46535,
      "content": "<unused378>",
      "single_word": false,
      "lstrip": false,
      "rstrip": false,
      "normalized": false,
      "special": true
    },
    {
      "id": 46536,
      "content": "<unused379>",
      "single_word": false,
      "lstrip": false,
      "rstrip": false,
      "normalized": false,
      "special": true
    },
    {
      "id": 46537,
      "content": "<unused380>",
      "single_word": false,
      "lstrip": false,
      "rstrip": false,
      "normalized": false,
      "special": true
    },
    {
      "id": 46538,
      "content": "<unused381>",
      "single_word": false,
      "lstrip": false,
      "rstrip": false,
      "normalized": false,
      "special": true
    },
    {
      "id": 46539,
      "content": "<unused382>",
      "single_word": false,
      "lstrip": false,
      "rstrip": false,
      "normalized": false,
      "special": true
    },
    {
      "id": 46540,
      "content": "<unused383>",
      "single_word": false,
      "lstrip": false,
      "rstrip": false,
      "normalized": false,
      "special": true
    },
    {
      "id": 46541,
      "content": "<unused384>",
      "single_word": false,
      "lstrip": false,
      "rstrip": false,
      "normalized": false,
      "special": true
    },
    {
      "id": 46542,
      "content": "<unused385>",
      "single_word": false,
      "lstrip": false,
      "rstrip": false,
      "normalized": false,
      "special": true
    },
    {
      "id": 46543,
      "content": "<unused386>",
      "single_word": false,
      "lstrip": false,
      "rstrip": false,
      "normalized": false,
      "special": true
    },
    {
      "id": 46544,
      "content": "<unused387>",
      "single_word": false,
      "lstrip": false,
      "rstrip": false,
      "normalized": false,
      "special": true
    },
    {
      "id": 46545,
      "content": "<unused388>",
      "single_word": false,
      "lstrip": false,
      "rstrip": false,
      "normalized": false,
      "special": true
    },
    {
      "id": 46546,
      "content": "<unused389>",
      "single_word": false,
      "lstrip": false,
      "rstrip": false,
      "normalized": false,
      "special": true
    },
    {
      "id": 46547,
      "content": "<unused390>",
      "single_word": false,
      "lstrip": false,
      "rstrip": false,
      "normalized": false,
      "special": true
    },
    {
      "id": 46548,
      "content": "<unused391>",
      "single_word": false,
      "lstrip": false,
      "rstrip": false,
      "normalized": false,
      "special": true
    },
    {
      "id": 46549,
      "content": "<unused392>",
      "single_word": false,
      "lstrip": false,
      "rstrip": false,
      "normalized": false,
      "special": true
    },
    {
      "id": 46550,
      "content": "<unused393>",
      "single_word": false,
      "lstrip": false,
      "rstrip": false,
      "normalized": false,
      "special": true
    },
    {
      "id": 46551,
      "content": "<unused394>",
      "single_word": false,
      "lstrip": false,
      "rstrip": false,
      "normalized": false,
      "special": true
    },
    {
      "id": 46552,
      "content": "<unused395>",
      "single_word": false,
      "lstrip": false,
      "rstrip": false,
      "normalized": false,
      "special": true
    },
    {
      "id": 46553,
      "content": "<unused396>",
      "single_word": false,
      "lstrip": false,
      "rstrip": false,
      "normalized": false,
      "special": true
    },
    {
      "id": 46554,
      "content": "<unused397>",
      "single_word": false,
      "lstrip": false,
      "rstrip": false,
      "normalized": false,
      "special": true
    },
    {
      "id": 46555,
      "content": "<unused398>",
      "single_word": false,
      "lstrip": false,
      "rstrip": false,
      "normalized": false,
      "special": true
    },
    {
      "id": 46556,
      "content": "<unused399>",
      "single_word": false,
      "lstrip": false,
      "rstrip": false,
      "normalized": false,
      "special": true
    },
    {
      "id": 46557,
      "content": "<unused400>",
      "single_word": false,
      "lstrip": false,
      "rstrip": false,
      "normalized": false,
      "special": true
    },
    {
      "id": 46558,
      "content": "<unused401>",
      "single_word": false,
      "lstrip": false,
      "rstrip": false,
      "normalized": false,
      "special": true
    },
    {
      "id": 46559,
      "content": "<unused402>",
      "single_word": false,
      "lstrip": false,
      "rstrip": false,
      "normalized": false,
      "special": true
    },
    {
      "id": 46560,
      "content": "<unused403>",
      "single_word": false,
      "lstrip": false,
      "rstrip": false,
      "normalized": false,
      "special": true
    },
    {
      "id": 46561,
      "content": "<unused404>",
      "single_word": false,
      "lstrip": false,
      "rstrip": false,
      "normalized": false,
      "special": true
    },
    {
      "id": 46562,
      "content": "<unused405>",
      "single_word": false,
      "lstrip": false,
      "rstrip": false,
      "normalized": false,
      "special": true
    },
    {
      "id": 46563,
      "content": "<unused406>",
      "single_word": false,
      "lstrip": false,
      "rstrip": false,
      "normalized": false,
      "special": true
    },
    {
      "id": 46564,
      "content": "<unused407>",
      "single_word": false,
      "lstrip": false,
      "rstrip": false,
      "normalized": false,
      "special": true
    },
    {
      "id": 46565,
      "content": "<unused408>",
      "single_word": false,
      "lstrip": false,
      "rstrip": false,
      "normalized": false,
      "special": true
    },
    {
      "id": 46566,
      "content": "<unused409>",
      "single_word": false,
      "lstrip": false,
      "rstrip": false,
      "normalized": false,
      "special": true
    },
    {
      "id": 46567,
      "content": "<unused410>",
      "single_word": false,
      "lstrip": false,
      "rstrip": false,
      "normalized": false,
      "special": true
    },
    {
      "id": 46568,
      "content": "<unused411>",
      "single_word": false,
      "lstrip": false,
      "rstrip": false,
      "normalized": false,
      "special": true
    },
    {
      "id": 46569,
      "content": "<unused412>",
      "single_word": false,
      "lstrip": false,
      "rstrip": false,
      "normalized": false,
      "special": true
    },
    {
      "id": 46570,
      "content": "<unused413>",
      "single_word": false,
      "lstrip": false,
      "rstrip": false,
      "normalized": false,
      "special": true
    },
    {
      "id": 46571,
      "content": "<unused414>",
      "single_word": false,
      "lstrip": false,
      "rstrip": false,
      "normalized": false,
      "special": true
    },
    {
      "id": 46572,
      "content": "<unused415>",
      "single_word": false,
      "lstrip": false,
      "rstrip": false,
      "normalized": false,
      "special": true
    },
    {
      "id": 46573,
      "content": "<unused416>",
      "single_word": false,
      "lstrip": false,
      "rstrip": false,
      "normalized": false,
      "special": true
    },
    {
      "id": 46574,
      "content": "<unused417>",
      "single_word": false,
      "lstrip": false,
      "rstrip": false,
      "normalized": false,
      "special": true
    },
    {
      "id": 46575,
      "content": "<unused418>",
      "single_word": false,
      "lstrip": false,
      "rstrip": false,
      "normalized": false,
      "special": true
    },
    {
      "id": 46576,
      "content": "<unused419>",
      "single_word": false,
      "lstrip": false,
      "rstrip": false,
      "normalized": false,
      "special": true
    },
    {
      "id": 46577,
      "content": "<unused420>",
      "single_word": false,
      "lstrip": false,
      "rstrip": false,
      "normalized": false,
      "special": true
    },
    {
      "id": 46578,
      "content": "<unused421>",
      "single_word": false,
      "lstrip": false,
      "rstrip": false,
      "normalized": false,
      "special": true
    },
    {
      "id": 46579,
      "content": "<unused422>",
      "single_word": false,
      "lstrip": false,
      "rstrip": false,
      "normalized": false,
      "special": true
    },
    {
      "id": 46580,
      "content": "<unused423>",
      "single_word": false,
      "lstrip": false,
      "rstrip": false,
      "normalized": false,
      "special": true
    },
    {
      "id": 46581,
      "content": "<unused424>",
      "single_word": false,
      "lstrip": false,
      "rstrip": false,
      "normalized": false,
      "special": true
    },
    {
      "id": 46582,
      "content": "<unused425>",
      "single_word": false,
      "lstrip": false,
      "rstrip": false,
      "normalized": false,
      "special": true
    },
    {
      "id": 46583,
      "content": "<unused426>",
      "single_word": false,
      "lstrip": false,
      "rstrip": false,
      "normalized": false,
      "special": true
    },
    {
      "id": 46584,
      "content": "<unused427>",
      "single_word": false,
      "lstrip": false,
      "rstrip": false,
      "normalized": false,
      "special": true
    },
    {
      "id": 46585,
      "content": "<unused428>",
      "single_word": false,
      "lstrip": false,
      "rstrip": false,
      "normalized": false,
      "special": true
    },
    {
      "id": 46586,
      "content": "<unused429>",
      "single_word": false,
      "lstrip": false,
      "rstrip": false,
      "normalized": false,
      "special": true
    },
    {
      "id": 46587,
      "content": "<unused430>",
      "single_word": false,
      "lstrip": false,
      "rstrip": false,
      "normalized": false,
      "special": true
    },
    {
      "id": 46588,
      "content": "<unused431>",
      "single_word": false,
      "lstrip": false,
      "rstrip": false,
      "normalized": false,
      "special": true
    },
    {
      "id": 46589,
      "content": "<unused432>",
      "single_word": false,
      "lstrip": false,
      "rstrip": false,
      "normalized": false,
      "special": true
    },
    {
      "id": 46590,
      "content": "<unused433>",
      "single_word": false,
      "lstrip": false,
      "rstrip": false,
      "normalized": false,
      "special": true
    },
    {
      "id": 46591,
      "content": "<unused434>",
      "single_word": false,
      "lstrip": false,
      "rstrip": false,
      "normalized": false,
      "special": true
    }
  ],
  "normalizer": {
    "type": "Sequence",
    "normalizers": [
      {
        "type": "NFKC"
      },
      {
        "type": "Prepend",
        "prepend": "▁"
      },
      {
        "type": "Replace",
        "pattern": {
          "String": " "
        },
        "content": "▁"
      }
    ]
  },
  "pre_tokenizer": null,
  "post_processor": {
    "type": "TemplateProcessing",
    "single": [
      {
        "SpecialToken": {
          "id": "<s>",
          "type_id": 0
        }
      },
      {
        "Sequence": {
          "id": "A",
          "type_id": 0
        }
      }
    ],
    "pair": [
      {
        "SpecialToken": {
          "id": "<s>",
          "type_id": 0
        }
      },
      {
        "Sequence": {
          "id": "A",
          "type_id": 0
        }
      },
      {
        "SpecialToken": {
          "id": "<s>",
          "type_id": 1
        }
      },
      {
        "Sequence": {
          "id": "B",
          "type_id": 1
        }
      }
    ],
    "special_tokens": {
      "<s>": {
        "id": "<s>",
        "ids": [
          1
        ],
        "tokens": [
          "<s>"
        ]
      }
    }
  },
  "decoder": {
    "type": "Sequence",
    "decoders": [
      {
        "type": "Replace",
        "pattern": {
          "String": "▁"
        },
        "content": " "
      },
      {
        "type": "ByteFallback"
      },
      {
        "type": "Fuse"
      },
      {
        "type": "Strip",
        "content": " ",
        "start": 1,
        "stop": 0
      }
    ]
  },
  "model": {
    "type": "BPE",
    "dropout": null,
    "unk_token": "<unk>",
    "continuing_subword_prefix": null,
    "end_of_word_suffix": null,
    "fuse_unk": true,
    "byte_fallback": true,
    "vocab": {
      "<unk>": 0,
      "<s>": 1,
      "</s>": 2,
      "<0x00>": 3,
      "<0x01>": 4,
      "<0x02>": 5,
      "<0x03>": 6,
      "<0x04>": 7,
      "<0x05>": 8,
      "<0x06>": 9,
      "<0x07>": 10,
      "<0x08>": 11,
      "<0x09>": 12,
      "<0x0A>": 13,
      "<0x0B>": 14,
      "<0x0C>": 15,
      "<0x0D>": 16,
      "<0x0E>": 17,
      "<0x0F>": 18,
      "<0x10>": 19,
      "<0x11>": 20,
      "<0x12>": 21,
      "<0x13>": 22,
      "<0x14>": 23,
      "<0x15>": 24,
      "<0x16>": 25,
      "<0x17>": 26,
      "<0x18>": 27,
      "<0x19>": 28,
      "<0x1A>": 29,
      "<0x1B>": 30,
      "<0x1C>": 31,
      "<0x1D>": 32,
      "<0x1E>": 33,
      "<0x1F>": 34,
      "<0x20>": 35,
      "<0x21>": 36,
      "<0x22>": 37,
      "<0x23>": 38,
      "<0x24>": 39,
      "<0x25>": 40,
      "<0x26>": 41,
      "<0x27>": 42,
      "<0x28>": 43,
      "<0x29>": 44,
      "<0x2A>": 45,
      "<0x2B>": 46,
      "<0x2C>": 47,
      "<0x2D>": 48,
      "<0x2E>": 49,
      "<0x2F>": 50,
      "<0x30>": 51,
      "<0x31>": 52,
      "<0x32>": 53,
      "<0x33>": 54,
      "<0x34>": 55,
      "<0x35>": 56,
      "<0x36>": 57,
      "<0x37>": 58,
      "<0x38>": 59,
      "<0x39>": 60,
      "<0x3A>": 61,
      "<0x3B>": 62,
      "<0x3C>": 63,
      "<0x3D>": 64,
      "<0x3E>": 65,
      "<0x3F>": 66,
      "<0x40>": 67,
      "<0x41>": 68,
      "<0x42>": 69,
      "<0x43>": 70,
      "<0x44>": 71,
      "<0x45>": 72,
      "<0x46>": 73,
      "<0x47>": 74,
      "<0x48>": 75,
      "<0x49>": 76,
      "<0x4A>": 77,
      "<0x4B>": 78,
      "<0x4C>": 79,
      "<0x4D>": 80,
      "<0x4E>": 81,
      "<0x4F>": 82,
      "<0x50>": 83,
      "<0x51>": 84,
      "<0x52>": 85,
      "<0x53>": 86,
      "<0x54>": 87,
      "<0x55>": 88,
      "<0x56>": 89,
      "<0x57>": 90,
      "<0x58>": 91,
      "<0x59>": 92,
      "<0x5A>": 93,
      "<0x5B>": 94,
      "<0x5C>": 95,
      "<0x5D>": 96,
      "<0x5E>": 97,
      "<0x5F>": 98,
      "<0x60>": 99,
      "<0x61>": 100,
      "<0x62>": 101,
      "<0x63>": 102,
      "<0x64>": 103,
      "<0x65>": 104,
      "<0x66>": 105,
      "<0x67>": 106,
      "<0x68>": 107,
      "<0x69>": 108,
      "<0x6A>": 109,
      "<0x6B>": 110,
      "<0x6C>": 111,
      "<0x6D>": 112,
      "<0x6E>": 113,
      "<0x6F>": 114,
      "<0x70>": 115,
      "<0x71>": 116,
      "<0x72>": 117,
      "<0x73>": 118,
      "<0x74>": 119,
      "<0x75>": 120,
      "<0x76>": 121,
      "<0x77>": 122,
      "<0x78>": 123,
      "<0x79>": 124,
      "<0x7A>": 125,
      "<0x7B>": 126,
      "<0x7C>": 127,
      "<0x7D>": 128,
      "<0x7E>": 129,
      "<0x7F>": 130,
      "<0x80>": 131,
      "<0x81>": 132,
      "<0x82>": 133,
      "<0x83>": 134,
      "<0x84>": 135,
      "<0x85>": 136,
      "<0x86>": 137,
      "<0x87>": 138,
      "<0x88>": 139,
      "<0x89>": 140,
      "<0x8A>": 141,
      "<0x8B>": 142,
      "<0x8C>": 143,
      "<0x8D>": 144,
      "<0x8E>": 145,
      "<0x8F>": 146,
      "<0x90>": 147,
      "<0x91>": 148,
      "<0x92>": 149,
      "<0x93>": 150,
      "<0x94>": 151,
      "<0x95>": 152,
      "<0x96>": 153,
      "<0x97>": 154,
      "<0x98>": 155,
      "<0x99>": 156,
      "<0x9A>": 157,
      "<0x9B>": 158,
      "<0x9C>": 159,
      "<0x9D>": 160,
      "<0x9E>": 161,
      "<0x9F>": 162,
      "<0xA0>": 163,
      "<0xA1>": 164,
      "<0xA2>": 165,
      "<0xA3>": 166,
      "<0xA4>": 167,
      "<0xA5>": 168,
      "<0xA6>": 169,
      "<0xA7>": 170,
      "<0xA8>": 171,
      "<0xA9>": 172,
      "<0xAA>": 173,
      "<0xAB>": 174,
      "<0xAC>": 175,
      "<0xAD>": 176,
      "<0xAE>": 177,
      "<0xAF>": 178,
      "<0xB0>": 179,
      "<0xB1>": 180,
      "<0xB2>": 181,
      "<0xB3>": 182,
      "<0xB4>": 183,
      "<0xB5>": 184,
      "<0xB6>": 185,
      "<0xB7>": 186,
      "<0xB8>": 187,
      "<0xB9>": 188,
      "<0xBA>": 189,
      "<0xBB>": 190,
      "<0xBC>": 191,
      "<0xBD>": 192,
      "<0xBE>": 193,
      "<0xBF>": 194,
      "<0xC0>": 195,
      "<0xC1>": 196,
      "<0xC2>": 197,
      "<0xC3>": 198,
      "<0xC4>": 199,
      "<0xC5>": 200,
      "<0xC6>": 201,
      "<0xC7>": 202,
      "<0xC8>": 203,
      "<0xC9>": 204,
      "<0xCA>": 205,
      "<0xCB>": 206,
      "<0xCC>": 207,
      "<0xCD>": 208,
      "<0xCE>": 209,
      "<0xCF>": 210,
      "<0xD0>": 211,
      "<0xD1>": 212,
      "<0xD2>": 213,
      "<0xD3>": 214,
      "<0xD4>": 215,
      "<0xD5>": 216,
      "<0xD6>": 217,
      "<0xD7>": 218,
      "<0xD8>": 219,
      "<0xD9>": 220,
      "<0xDA>": 221,
      "<0xDB>": 222,
      "<0xDC>": 223,
      "<0xDD>": 224,
      "<0xDE>": 225,
      "<0xDF>": 226,
      "<0xE0>": 227,
      "<0xE1>": 228,
      "<0xE2>": 229,
      "<0xE3>": 230,
      "<0xE4>": 231,
      "<0xE5>": 232,
      "<0xE6>": 233,
      "<0xE7>": 234,
      "<0xE8>": 235,
      "<0xE9>": 236,
      "<0xEA>": 237,
      "<0xEB>": 238,
      "<0xEC>": 239,
      "<0xED>": 240,
      "<0xEE>": 241,
      "<0xEF>": 242,
      "<0xF0>": 243,
      "<0xF1>": 244,
      "<0xF2>": 245,
      "<0xF3>": 246,
      "<0xF4>": 247,
      "<0xF5>": 248,
      "<0xF6>": 249,
      "<0xF7>": 250,
      "<0xF8>": 251,
      "<0xF9>": 252,
      "<0xFA>": 253,
      "<0xFB>": 254,
      "<0xFC>": 255,
      "<0xFD>": 256,
      "<0xFE>": 257,
      "<0xFF>": 258,
      "▁▁": 259,
      "▁▁▁▁": 260,
      "▁t": 261,
      "in": 262,
      "er": 263,
      "▁a": 264,
      "he": 265,
      "on": 266,
      "re": 267,
      "▁s": 268,
      "en": 269,
      "at": 270,
      "or": 271,
      "▁the": 272,
      "▁▁▁▁▁▁▁▁": 273,
      "es": 274,
      "▁w": 275,
      "an": 276,
      "▁c": 277,
      "is": 278,
      "it": 279,
      "ou": 280,
      "▁d": 281,
      "al": 282,
      "ar": 283,
      "▁p": 284,
      "▁f": 285,
      "ed": 286,
      "▁b": 287,
      "ing": 288,
      "▁o": 289,
      "▁m": 290,
      "le": 291,
      "nd": 292,
      "as": 293,
      "ic": 294,
      "▁h": 295,
      "ion": 296,
      "▁in": 297,
      "▁to": 298,
      "et": 299,
      "om": 300,
      "el": 301,
      "▁of": 302,
      "st": 303,
      "▁and": 304,
      "▁l": 305,
      "▁th": 306,
      "▁n": 307,
      "ent": 308,
      "il": 309,
      "ct": 310,
      "ro": 311,
      "▁re": 312,
      "id": 313,
      "am": 314,
      "▁I": 315,
      "ad": 316,
      "▁e": 317,
      "▁S": 318,
      "▁g": 319,
      "▁T": 320,
      "im": 321,
      "ot": 322,
      "ac": 323,
      "ur": 324,
      "▁(": 325,
      "ig": 326,
      "▁=": 327,
      "ol": 328,
      "ut": 329,
      "▁A": 330,
      "se": 331,
      "▁u": 332,
      "ve": 333,
      "▁C": 334,
      "if": 335,
      "ow": 336,
      "▁y": 337,
      "ch": 338,
      "ay": 339,
      "▁de": 340,
      "▁st": 341,
      "▁|": 342,
      "ver": 343,
      ");": 344,
      "▁\"": 345,
      "ly": 346,
      "▁be": 347,
      "**": 348,
      "▁is": 349,
      "od": 350,
      "▁M": 351,
      "ation": 352,
      "ul": 353,
      "▁for": 354,
      "▁▁▁▁▁": 355,
      "▁on": 356,
      "ag": 357,
      "ce": 358,
      "▁▁▁▁▁▁▁▁▁▁▁▁▁▁▁▁": 359,
      "ter": 360,
      "ir": 361,
      "th": 362,
      "▁v": 363,
      "qu": 364,
      "▁B": 365,
      "em": 366,
      "▁P": 367,
      "▁you": 368,
      "▁that": 369,
      "un": 370,
      "▁{": 371,
      "ith": 372,
      "ri": 373,
      "est": 374,
      "ab": 375,
      "--": 376,
      "ap": 377,
      "▁it": 378,
      "▁con": 379,
      "ate": 380,
      "us": 381,
      "▁H": 382,
      "um": 383,
      "▁D": 384,
      "os": 385,
      "pe": 386,
      "▁-": 387,
      "▁wh": 388,
      "▁al": 389,
      "▁as": 390,
      "and": 391,
      "ist": 392,
      "▁L": 393,
      "▁W": 394,
      "▁with": 395,
      "▁an": 396,
      "ere": 397,
      "▁*": 398,
      "▁R": 399,
      "▁he": 400,
      "▁F": 401,
      "oc": 402,
      "▁was": 403,
      "ers": 404,
      "ke": 405,
      "out": 406,
      "ht": 407,
      "▁r": 408,
      "ess": 409,
      "op": 410,
      "res": 411,
      "ie": 412,
      "▁E": 413,
      "▁\\": 414,
      "▁The": 415,
      "end": 416,
      "ld": 417,
      "▁N": 418,
      "ort": 419,
      "▁G": 420,
      "//": 421,
      "▁#": 422,
      "our": 423,
      "te": 424,
      "ill": 425,
      "ain": 426,
      "▁se": 427,
      "▁▁▁▁▁▁": 428,
      "▁$": 429,
      "▁pro": 430,
      "ore": 431,
      "▁com": 432,
      "ame": 433,
      "tr": 434,
      "▁ne": 435,
      "rom": 436,
      "ub": 437,
      "▁at": 438,
      "▁ex": 439,
      "ant": 440,
      "ue": 441,
      "▁or": 442,
      "▁}": 443,
      "art": 444,
      "ction": 445,
      "▁k": 446,
      "pt": 447,
      "nt": 448,
      "iv": 449,
      "de": 450,
      "▁O": 451,
      "pl": 452,
      "urn": 453,
      "ight": 454,
      "all": 455,
      "▁this": 456,
      "ser": 457,
      "ave": 458,
      "▁not": 459,
      "▁are": 460,
      "▁j": 461,
      "▁le": 462,
      "iz": 463,
      "▁'": 464,
      "age": 465,
      "ment": 466,
      "▁tr": 467,
      "ack": 468,
      "ust": 469,
      "()": 470,
      "->": 471,
      "ity": 472,
      "ine": 473,
      "ould": 474,
      "▁J": 475,
      "og": 476,
      "▁from": 477,
      "▁we": 478,
      "ell": 479,
      "▁sh": 480,
      "▁en": 481,
      "ure": 482,
      "port": 483,
      "▁ch": 484,
      "ne": 485,
      "▁by": 486,
      "per": 487,
      "ard": 488,
      "ass": 489,
      "ge": 490,
      "ak": 491,
      "are": 492,
      "ok": 493,
      "av": 494,
      "ive": 495,
      "ff": 496,
      "ies": 497,
      "ath": 498,
      "turn": 499,
      "▁U": 500,
      "int": 501,
      "----": 502,
      "▁im": 503,
      "ost": 504,
      "ial": 505,
      "▁have": 506,
      "ind": 507,
      "ip": 508,
      "ans": 509,
      "xt": 510,
      "▁do": 511,
      "cl": 512,
      "▁if": 513,
      "con": 514,
      "ia": 515,
      "▁his": 516,
      "ult": 517,
      "rou": 518,
      "▁su": 519,
      "ra": 520,
      "▁un": 521,
      "able": 522,
      "▁<": 523,
      "▁K": 524,
      "ome": 525,
      "▁qu": 526,
      "get": 527,
      "▁me": 528,
      "ast": 529,
      "ect": 530,
      "▁##": 531,
      "to": 532,
      "▁cl": 533,
      "▁ab": 534,
      "ice": 535,
      "ire": 536,
      "ber": 537,
      "one": 538,
      "ich": 539,
      "hen": 540,
      "▁can": 541,
      "▁Th": 542,
      "▁la": 543,
      "▁all": 544,
      "ime": 545,
      "ile": 546,
      "ide": 547,
      "\",": 548,
      "▁pl": 549,
      "▁V": 550,
      "ru": 551,
      "orm": 552,
      "▁had": 553,
      "ud": 554,
      "ase": 555,
      "ord": 556,
      "),": 557,
      "▁▁▁▁▁▁▁▁▁▁▁▁": 558,
      "▁her": 559,
      "▁In": 560,
      "ace": 561,
      "▁but": 562,
      "ata": 563,
      "::": 564,
      "****": 565,
      "ong": 566,
      "▁&": 567,
      "..": 568,
      "▁▁▁▁▁▁▁▁▁▁▁▁▁": 569,
      "ite": 570,
      "ype": 571,
      "act": 572,
      "ode": 573,
      "▁your": 574,
      "▁out": 575,
      "▁go": 576,
      "lic": 577,
      "ally": 578,
      "▁so": 579,
      "ork": 580,
      "au": 581,
      "▁up": 582,
      "▁_": 583,
      "ll": 584,
      "==": 585,
      "▁my": 586,
      "pp": 587,
      "cc": 588,
      "▁//": 589,
      "▁they": 590,
      "gh": 591,
      "▁us": 592,
      "ib": 593,
      "ions": 594,
      "ach": 595,
      "ens": 596,
      "▁ar": 597,
      "ob": 598,
      "elf": 599,
      "ook": 600,
      "ated": 601,
      "ang": 602,
      "ign": 603,
      "▁return": 604,
      "▁res": 605,
      "ck": 606,
      "ous": 607,
      "ст": 608,
      ").": 609,
      "▁п": 610,
      ".\"": 611,
      "на": 612,
      "▁i": 613,
      "ail": 614,
      "ep": 615,
      "▁ad": 616,
      "ance": 617,
      "(\"": 618,
      "▁**": 619,
      "ther": 620,
      "ake": 621,
      "▁will": 622,
      "▁comp": 623,
      "▁one": 624,
      "▁get": 625,
      "ov": 626,
      "▁Y": 627,
      "ary": 628,
      "ock": 629,
      "▁she": 630,
      "che": 631,
      "ft": 632,
      "▁new": 633,
      "▁des": 634,
      "▁li": 635,
      "ence": 636,
      "▁sa": 637,
      "ress": 638,
      "▁el": 639,
      "▁und": 640,
      "eg": 641,
      "fer": 642,
      "ry": 643,
      "ear": 644,
      "ose": 645,
      "very": 646,
      "',": 647,
      "▁+": 648,
      "▁в": 649,
      "▁He": 650,
      "ublic": 651,
      "▁their": 652,
      "ize": 653,
      "▁were": 654,
      "ink": 655,
      "own": 656,
      "In": 657,
      "{\\": 658,
      "▁has": 659,
      "▁per": 660,
      "▁It": 661,
      "▁St": 662,
      "her": 663,
      "ject": 664,
      "ра": 665,
      "ild": 666,
      "so": 667,
      "▁sp": 668,
      "ни": 669,
      "du": 670,
      "row": 671,
      "alue": 672,
      "set": 673,
      "form": 674,
      "com": 675,
      "▁man": 676,
      "ont": 677,
      "ull": 678,
      "▁cont": 679,
      "▁more": 680,
      "ick": 681,
      "▁would": 682,
      "▁ev": 683,
      "▁about": 684,
      "ition": 685,
      "▁z": 686,
      "ound": 687,
      "ree": 688,
      "▁Ch": 689,
      "▁which": 690,
      "io": 691,
      "();": 692,
      "▁who": 693,
      "err": 694,
      "ory": 695,
      "ount": 696,
      "ations": 697,
      "▁с": 698,
      "ring": 699,
      "</": 700,
      "▁fe": 701,
      "ко": 702,
      "но": 703,
      "▁dis": 704,
      "ma": 705,
      "▁them": 706,
      "▁any": 707,
      "▁no": 708,
      "--------": 709,
      "▁pre": 710,
      "▁te": 711,
      "▁ro": 712,
      "▁him": 713,
      "▁:": 714,
      "up": 715,
      "▁int": 716,
      "▁ag": 717,
      "St": 718,
      "ark": 719,
      "ex": 720,
      "ph": 721,
      "ient": 722,
      "ely": 723,
      "▁pr": 724,
      "ER": 725,
      "▁import": 726,
      "▁time": 727,
      "ро": 728,
      "pro": 729,
      "User": 730,
      "lo": 731,
      "▁/": 732,
      "▁[": 733,
      "ors": 734,
      "=\"": 735,
      "▁there": 736,
      "▁like": 737,
      "old": 738,
      "▁when": 739,
      "vers": 740,
      "▁some": 741,
      "ings": 742,
      "))": 743,
      "▁part": 744,
      "ical": 745,
      "▁fun": 746,
      "▁kn": 747,
      "ays": 748,
      "ier": 749,
      "▁been": 750,
      "ove": 751,
      "▁sc": 752,
      "ian": 753,
      "▁over": 754,
      "iel": 755,
      "▁▁▁▁▁▁▁▁▁▁": 756,
      "▁pe": 757,
      "rib": 758,
      "put": 759,
      "ec": 760,
      "eth": 761,
      "aram": 762,
      "app": 763,
      "▁–": 764,
      "▁stat": 765,
      "pon": 766,
      "▁what": 767,
      "ption": 768,
      "we": 769,
      "ade": 770,
      "▁work": 771,
      "text": 772,
      "▁said": 773,
      "▁###": 774,
      "IN": 775,
      "▁just": 776,
      "irst": 777,
      "▁into": 778,
      "▁const": 779,
      "ource": 780,
      "tt": 781,
      "ps": 782,
      "pr": 783,
      "erv": 784,
      "itt": 785,
      "ug": 786,
      "_{": 787,
      "ents": 788,
      "ish": 789,
      "ener": 790,
      "▁inter": 791,
      "ple": 792,
      "oll": 793,
      "mer": 794,
      "ater": 795,
      "ool": 796,
      "ef": 797,
      "▁public": 798,
      "▁other": 799,
      "ре": 800,
      "▁def": 801,
      "▁@": 802,
      "го": 803,
      "oint": 804,
      "▁off": 805,
      "oid": 806,
      "return": 807,
      "▁set": 808,
      "wo": 809,
      "fter": 810,
      "sh": 811,
      "********": 812,
      "▁our": 813,
      "riv": 814,
      "iss": 815,
      "▁We": 816,
      "ng": 817,
      "▁ob": 818,
      "ss": 819,
      "gr": 820,
      "▁than": 821,
      "pect": 822,
      "ied": 823,
      "sc": 824,
      "iew": 825,
      "der": 826,
      "yst": 827,
      "ev": 828,
      "▁could": 829,
      "ann": 830,
      "enc": 831,
      "ON": 832,
      "ix": 833,
      "anc": 834,
      "▁also": 835,
      "reat": 836,
      "▁am": 837,
      "▁bec": 838,
      "▁и": 839,
      "ual": 840,
      "pec": 841,
      "▁.": 842,
      "▁bl": 843,
      "lect": 844,
      "ople": 845,
      "ys": 846,
      "▁gr": 847,
      "ict": 848,
      "ik": 849,
      "tring": 850,
      "▁This": 851,
      "▁back": 852,
      "▁о": 853,
      "▁fin": 854,
      "atch": 855,
      "Con": 856,
      "('": 857,
      "erm": 858,
      "▁==": 859,
      "__": 860,
      "name": 861,
      ",\"": 862,
      "▁did": 863,
      "ise": 864,
      "▁only": 865,
      "ruct": 866,
      "les": 867,
      "▁then": 868,
      "ause": 869,
      "ва": 870,
      "▁its": 871,
      "rit": 872,
      "▁know": 873,
      "ield": 874,
      "▁class": 875,
      "▁>": 876,
      "▁em": 877,
      "▁$\\": 878,
      "▁year": 879,
      "wn": 880,
      "},": 881,
      "▁del": 882,
      "ale": 883,
      "ty": 884,
      "fig": 885,
      "sp": 886,
      "hed": 887,
      "round": 888,
      "ew": 889,
      "▁di": 890,
      "▁der": 891,
      "ри": 892,
      "red": 893,
      "this": 894,
      "let": 895,
      "RE": 896,
      "ax": 897,
      "fr": 898,
      "essage": 899,
      "ough": 900,
      "▁comm": 901,
      "fo": 902,
      "uch": 903,
      "oy": 904,
      "▁people": 905,
      "ystem": 906,
      "▁first": 907,
      "▁function": 908,
      "ange": 909,
      "▁how": 910,
      "▁et": 911,
      "ah": 912,
      "▁look": 913,
      "то": 914,
      "und": 915,
      "▁under": 916,
      "ка": 917,
      "▁!": 918,
      "ray": 919,
      "ST": 920,
      "ific": 921,
      "ли": 922,
      "read": 923,
      "▁bet": 924,
      "ious": 925,
      "arg": 926,
      "▁need": 927,
      "math": 928,
      "▁на": 929,
      "ert": 930,
      "▁op": 931,
      "▁acc": 932,
      "Pro": 933,
      "▁est": 934,
      "▁Un": 935,
      "▁ent": 936,
      "▁rec": 937,
      "▁use": 938,
      "ен": 939,
      "▁par": 940,
      "az": 941,
      "▁д": 942,
      "▁Wh": 943,
      "self": 944,
      "▁ke": 945,
      "та": 946,
      "▁want": 947,
      "▁end": 948,
      "▁don": 949,
      "ek": 950,
      "ren": 951,
      "Name": 952,
      "▁=>": 953,
      "▁app": 954,
      "▁que": 955,
      "igh": 956,
      "▁bu": 957,
      "equ": 958,
      "vel": 959,
      "▁act": 960,
      "cre": 961,
      "AT": 962,
      "▁var": 963,
      "cess": 964,
      "====": 965,
      "Ex": 966,
      "▁add": 967,
      "▁mod": 968,
      "ung": 969,
      "▁where": 970,
      "ning": 971,
      "▁fl": 972,
      "als": 973,
      "tern": 974,
      "}}": 975,
      "▁Al": 976,
      "▁pos": 977,
      "ank": 978,
      "▁ap": 979,
      "eng": 980,
      "▁“": 981,
      "ble": 982,
      "▁reg": 983,
      "^{": 984,
      "▁She": 985,
      "▁*/": 986,
      "ude": 987,
      "add": 988,
      "▁two": 989,
      "▁col": 990,
      "▁sm": 991,
      "air": 992,
      "▁may": 993,
      "fore": 994,
      "▁You": 995,
      "rough": 996,
      "▁che": 997,
      "▁att": 998,
      "oth": 999,
      "ла": 1000,
      "▁co": 1001,
      "ates": 1002,
      "▁rem": 1003,
      "ood": 1004,
      "Type": 1005,
      "led": 1006,
      "ful": 1007,
      "▁self": 1008,
      "of": 1009,
      "▁Ar": 1010,
      "que": 1011,
      "▁every": 1012,
      "ref": 1013,
      "The": 1014,
      "▁And": 1015,
      "▁rel": 1016,
      "OR": 1017,
      "Id": 1018,
      "▁even": 1019,
      "EN": 1020,
      "▁hand": 1021,
      "ait": 1022,
      "▁should": 1023,
      "▁after": 1024,
      "▁dif": 1025,
      "ght": 1026,
      "ife": 1027,
      "ator": 1028,
      "ash": 1029,
      "ribut": 1030,
      "umber": 1031,
      "▁see": 1032,
      "ms": 1033,
      "▁call": 1034,
      "yn": 1035,
      "dd": 1036,
      "▁es": 1037,
      "▁make": 1038,
      "other": 1039,
      "▁—": 1040,
      "\");": 1041,
      "str": 1042,
      "▁long": 1043,
      "lement": 1044,
      "▁wor": 1045,
      "its": 1046,
      "▁If": 1047,
      "alse": 1048,
      "ль": 1049,
      "ward": 1050,
      "▁по": 1051,
      "val": 1052,
      "ons": 1053,
      "▁Z": 1054,
      "▁now": 1055,
      "data": 1056,
      "amp": 1057,
      "ense": 1058,
      "▁through": 1059,
      "▁down": 1060,
      "att": 1061,
      "▁static": 1062,
      "ics": 1063,
      "##": 1064,
      "pos": 1065,
      "▁void": 1066,
      "aw": 1067,
      "oun": 1068,
      "▁way": 1069,
      "ible": 1070,
      "vent": 1071,
      "ower": 1072,
      "▁think": 1073,
      "ts": 1074,
      "*/": 1075,
      "▁again": 1076,
      "ating": 1077,
      "те": 1078,
      "ner": 1079,
      "▁most": 1080,
      "line": 1081,
      "ym": 1082,
      "▁sub": 1083,
      "erson": 1084,
      "▁requ": 1085,
      "AL": 1086,
      "AR": 1087,
      "abel": 1088,
      "ond": 1089,
      "));": 1090,
      "▁Se": 1091,
      "▁But": 1092,
      "alk": 1093,
      "▁An": 1094,
      "new": 1095,
      "▁because": 1096,
      "ger": 1097,
      "ular": 1098,
      "roup": 1099,
      "ta": 1100,
      "...": 1101,
      "▁cons": 1102,
      "▁right": 1103,
      "▁fr": 1104,
      "be": 1105,
      "ily": 1106,
      "ки": 1107,
      "▁ph": 1108,
      "ead": 1109,
      "?\"": 1110,
      "▁gu": 1111,
      "▁else": 1112,
      "▁som": 1113,
      "rent": 1114,
      "co": 1115,
      "ement": 1116,
      "▁str": 1117,
      "ault": 1118,
      "▁з": 1119,
      "ло": 1120,
      "sert": 1121,
      "var": 1122,
      "type": 1123,
      "▁Com": 1124,
      "ле": 1125,
      "ins": 1126,
      "me": 1127,
      "way": 1128,
      "ident": 1129,
      "▁prov": 1130,
      "▁м": 1131,
      "▁true": 1132,
      "▁Pro": 1133,
      "fl": 1134,
      "▁sl": 1135,
      "▁As": 1136,
      "}\\": 1137,
      "ID": 1138,
      "ues": 1139,
      "▁inst": 1140,
      "▁name": 1141,
      "ox": 1142,
      "▁)": 1143,
      "li": 1144,
      "ames": 1145,
      "Res": 1146,
      "▁sur": 1147,
      "param": 1148,
      "▁start": 1149,
      "aj": 1150,
      "SE": 1151,
      "ask": 1152,
      "IT": 1153,
      "String": 1154,
      "▁ass": 1155,
      "▁play": 1156,
      "ting": 1157,
      "ton": 1158,
      "▁before": 1159,
      "▁pol": 1160,
      "arch": 1161,
      "▁well": 1162,
      "Com": 1163,
      "any": 1164,
      "olog": 1165,
      "▁err": 1166,
      "▁these": 1167,
      "ars": 1168,
      "eb": 1169,
      "▁br": 1170,
      "▁incl": 1171,
      "▁hel": 1172,
      "ern": 1173,
      "ody": 1174,
      "во": 1175,
      "▁ind": 1176,
      "----------------": 1177,
      "▁data": 1178,
      "▁good": 1179,
      "LE": 1180,
      "],": 1181,
      "▁av": 1182,
      "▁ac": 1183,
      "ider": 1184,
      "не": 1185,
      "▁Q": 1186,
      "▁min": 1187,
      "▁much": 1188,
      "ci": 1189,
      "els": 1190,
      "▁cur": 1191,
      "▁value": 1192,
      "ery": 1193,
      "uf": 1194,
      "▁loc": 1195,
      "reak": 1196,
      "ative": 1197,
      "imes": 1198,
      "Cl": 1199,
      "▁,": 1200,
      "▁ser": 1201,
      "▁die": 1202,
      "▁trans": 1203,
      "▁result": 1204,
      "ext": 1205,
      "▁aut": 1206,
      "land": 1207,
      "▁&&": 1208,
      "Ch": 1209,
      "ten": 1210,
      "}$": 1211,
      "▁type": 1212,
      "cond": 1213,
      "ices": 1214,
      "▁very": 1215,
      "▁own": 1216,
      "▁fil": 1217,
      "ities": 1218,
      "▁produ": 1219,
      "▁read": 1220,
      "▁form": 1221,
      "▁case": 1222,
      "ather": 1223,
      "ти": 1224,
      "да": 1225,
      "ер": 1226,
      "Th": 1227,
      "aut": 1228,
      "▁spec": 1229,
      "ij": 1230,
      "bl": 1231,
      "ility": 1232,
      "▁é": 1233,
      "▁er": 1234,
      "▁does": 1235,
      "▁here": 1236,
      "the": 1237,
      "ures": 1238,
      "▁%": 1239,
      "min": 1240,
      "▁null": 1241,
      "rap": 1242,
      "\")": 1243,
      "rr": 1244,
      "List": 1245,
      "right": 1246,
      "▁User": 1247,
      "UL": 1248,
      "ational": 1249,
      "▁being": 1250,
      "AN": 1251,
      "sk": 1252,
      "▁car": 1253,
      "ole": 1254,
      "▁dist": 1255,
      "plic": 1256,
      "ollow": 1257,
      "▁pres": 1258,
      "▁such": 1259,
      "ream": 1260,
      "ince": 1261,
      "gan": 1262,
      "▁For": 1263,
      "\":": 1264,
      "son": 1265,
      "rivate": 1266,
      "▁years": 1267,
      "▁serv": 1268,
      "▁made": 1269,
      "def": 1270,
      ";\r": 1271,
      "▁gl": 1272,
      "▁bel": 1273,
      "▁list": 1274,
      "▁cor": 1275,
      "▁det": 1276,
      "ception": 1277,
      "egin": 1278,
      "▁б": 1279,
      "▁char": 1280,
      "trans": 1281,
      "▁fam": 1282,
      "▁!=": 1283,
      "ouse": 1284,
      "▁dec": 1285,
      "ica": 1286,
      "▁many": 1287,
      "aking": 1288,
      "▁à": 1289,
      "▁sim": 1290,
      "ages": 1291,
      "uff": 1292,
      "ased": 1293,
      "man": 1294,
      "▁Sh": 1295,
      "iet": 1296,
      "irect": 1297,
      "▁Re": 1298,
      "▁differ": 1299,
      "▁find": 1300,
      "ethod": 1301,
      "▁\r": 1302,
      "ines": 1303,
      "▁inv": 1304,
      "▁point": 1305,
      "▁They": 1306,
      "▁used": 1307,
      "ctions": 1308,
      "▁still": 1309,
      "ió": 1310,
      "ined": 1311,
      "▁while": 1312,
      "It": 1313,
      "ember": 1314,
      "▁say": 1315,
      "▁help": 1316,
      "▁cre": 1317,
      "▁x": 1318,
      "▁Tr": 1319,
      "ument": 1320,
      "▁sk": 1321,
      "ought": 1322,
      "ually": 1323,
      "message": 1324,
      "▁Con": 1325,
      "▁mon": 1326,
      "ared": 1327,
      "work": 1328,
      "):": 1329,
      "ister": 1330,
      "arn": 1331,
      "ized": 1332,
      "Data": 1333,
      "orn": 1334,
      "▁head": 1335,
      "DE": 1336,
      "▁Le": 1337,
      "▁person": 1338,
      "ments": 1339,
      "ength": 1340,
      "▁false": 1341,
      "▁med": 1342,
      "▁De": 1343,
      "ache": 1344,
      "ited": 1345,
      "▁let": 1346,
      "▁show": 1347,
      "▁same": 1348,
      "uss": 1349,
      "▁gener": 1350,
      "▁у": 1351,
      "cur": 1352,
      "▁real": 1353,
      "ced": 1354,
      "\">": 1355,
      "struct": 1356,
      "begin": 1357,
      "cept": 1358,
      "▁bo": 1359,
      "ired": 1360,
      "▁Fr": 1361,
      "▁stud": 1362,
      "dev": 1363,
      "Ar": 1364,
      "(\\": 1365,
      "▁Cl": 1366,
      "ween": 1367,
      "▁too": 1368,
      "▁test": 1369,
      "▁day": 1370,
      "oh": 1371,
      "▁follow": 1372,
      "ature": 1373,
      "ze": 1374,
      "ien": 1375,
      "reg": 1376,
      "ces": 1377,
      "uring": 1378,
      "amb": 1379,
      "ina": 1380,
      "cri": 1381,
      "▁ed": 1382,
      "SS": 1383,
      "uck": 1384,
      "▁/*": 1385,
      "CT": 1386,
      "▁There": 1387,
      "▁take": 1388,
      "par": 1389,
      "ule": 1390,
      "cal": 1391,
      "for": 1392,
      "****************": 1393,
      "source": 1394,
      "▁those": 1395,
      "col": 1396,
      "▁eff": 1397,
      "mod": 1398,
      "cont": 1399,
      "}{": 1400,
      "▁around": 1401,
      "press": 1402,
      "by": 1403,
      "▁going": 1404,
      "ponse": 1405,
      "▁С": 1406,
      "▁line": 1407,
      "date": 1408,
      "code": 1409,
      "['": 1410,
      "▁life": 1411,
      "ason": 1412,
      "▁using": 1413,
      "▁val": 1414,
      "▁du": 1415,
      "yp": 1416,
      "▁▁▁▁▁▁▁▁▁▁▁▁▁▁": 1417,
      "▁On": 1418,
      "▁found": 1419,
      "olut": 1420,
      "']": 1421,
      "arent": 1422,
      "▁string": 1423,
      "▁met": 1424,
      "▁wr": 1425,
      "ush": 1426,
      "string": 1427,
      "size": 1428,
      "▁ver": 1429,
      "▁each": 1430,
      "value": 1431,
      "▁last": 1432,
      "▁got": 1433,
      "ven": 1434,
      "back": 1435,
      "Set": 1436,
      "ey": 1437,
      "rol": 1438,
      "▁cr": 1439,
      "thing": 1440,
      "ret": 1441,
      "és": 1442,
      "ism": 1443,
      "▁between": 1444,
      "Ob": 1445,
      "ething": 1446,
      "mp": 1447,
      "▁lo": 1448,
      "ats": 1449,
      "▁New": 1450,
      "ви": 1451,
      "ado": 1452,
      "dex": 1453,
      "ди": 1454,
      "▁pass": 1455,
      "wh": 1456,
      "▁den": 1457,
      "Get": 1458,
      "apt": 1459,
      "▁ask": 1460,
      "▁sup": 1461,
      "Value": 1462,
      "ны": 1463,
      "▁try": 1464,
      "lation": 1465,
      "day": 1466,
      "ness": 1467,
      "ets": 1468,
      "▁exper": 1469,
      "Tr": 1470,
      "▁Mar": 1471,
      "serv": 1472,
      "br": 1473,
      "▁number": 1474,
      "inal": 1475,
      "cent": 1476,
      "/*": 1477,
      "not": 1478,
      "ional": 1479,
      "▁final": 1480,
      "')": 1481,
      "▁run": 1482,
      "over": 1483,
      "▁never": 1484,
      "uc": 1485,
      "▁high": 1486,
      "yle": 1487,
      "▁ins": 1488,
      "▁best": 1489,
      "ittle": 1490,
      "ric": 1491,
      "▁sign": 1492,
      "▁dem": 1493,
      "iness": 1494,
      "gy": 1495,
      "▁war": 1496,
      "ished": 1497,
      "▁giv": 1498,
      "key": 1499,
      "▁X": 1500,
      "($": 1501,
      "▁child": 1502,
      "less": 1503,
      "ways": 1504,
      "incl": 1505,
      "rop": 1506,
      "raw": 1507,
      "://": 1508,
      "▁«": 1509,
      "no": 1510,
      "indow": 1511,
      "fe": 1512,
      "riend": 1513,
      "▁les": 1514,
      "▁los": 1515,
      "file": 1516,
      "formation": 1517,
      "ccess": 1518,
      "▁В": 1519,
      "na": 1520,
      "▁il": 1521,
      "ision": 1522,
      "ler": 1523,
      "▁art": 1524,
      "Cont": 1525,
      "▁world": 1526,
      "▁turn": 1527,
      "▁really": 1528,
      "▁Ex": 1529,
      "ма": 1530,
      "▁П": 1531,
      "ters": 1532,
      "arget": 1533,
      "Err": 1534,
      "▁happ": 1535,
      "time": 1536,
      "▁So": 1537,
      "div": 1538,
      "▁didn": 1539,
      "ada": 1540,
      "oot": 1541,
      "})": 1542,
      "▁sch": 1543,
      "▁cle": 1544,
      "▁something": 1545,
      "().": 1546,
      "▁cour": 1547,
      "ever": 1548,
      "ants": 1549,
      "▁?": 1550,
      "To": 1551,
      "▁`": 1552,
      "try": 1553,
      "ux": 1554,
      "ais": 1555,
      "ross": 1556,
      "hip": 1557,
      "▁rep": 1558,
      "label": 1559,
      "▁both": 1560,
      "*,": 1561,
      "ott": 1562,
      "ми": 1563,
      "ane": 1564,
      "▁open": 1565,
      "ww": 1566,
      "▁come": 1567,
      "▁ext": 1568,
      "rem": 1569,
      "_{\\": 1570,
      "▁old": 1571,
      "ched": 1572,
      "._": 1573,
      "ME": 1574,
      "ify": 1575,
      "gg": 1576,
      "Col": 1577,
      "view": 1578,
      "▁bus": 1579,
      "▁must": 1580,
      "▁different": 1581,
      "log": 1582,
      "ists": 1583,
      "roll": 1584,
      "ai": 1585,
      "▁за": 1586,
      "▁system": 1587,
      "ivers": 1588,
      "atus": 1589,
      "ote": 1590,
      "med": 1591,
      "].": 1592,
      "akes": 1593,
      "RO": 1594,
      "▁cent": 1595,
      "gram": 1596,
      "▁private": 1597,
      "▁great": 1598,
      "\";": 1599,
      "opy": 1600,
      "▁feel": 1601,
      "▁How": 1602,
      "////": 1603,
      "IC": 1604,
      "▁dr": 1605,
      "ains": 1606,
      "lock": 1607,
      "En": 1608,
      "▁Sch": 1609,
      "▁mat": 1610,
      "▁home": 1611,
      "perty": 1612,
      "test": 1613,
      "loc": 1614,
      "▁wom": 1615,
      "sw": 1616,
      "arly": 1617,
      "▁En": 1618,
      "▁ко": 1619,
      "den": 1620,
      "ста": 1621,
      "▁а": 1622,
      "eter": 1623,
      "▁includ": 1624,
      "ULL": 1625,
      "▁mem": 1626,
      "▁po": 1627,
      "▁little": 1628,
      "▁arg": 1629,
      "▁},": 1630,
      "include": 1631,
      "eta": 1632,
      "▁place": 1633,
      "idth": 1634,
      "ustom": 1635,
      "▁||": 1636,
      "▁tem": 1637,
      "ried": 1638,
      "▁fact": 1639,
      "ience": 1640,
      "▁Pl": 1641,
      "opt": 1642,
      "ele": 1643,
      "go": 1644,
      "AC": 1645,
      "inter": 1646,
      "========": 1647,
      "(),": 1648,
      "ots": 1649,
      "ral": 1650,
      "ique": 1651,
      "aving": 1652,
      "ml": 1653,
      "▁thought": 1654,
      "frac": 1655,
      "▁care": 1656,
      "());": 1657,
      "▁put": 1658,
      "▁might": 1659,
      "▁Amer": 1660,
      "▁(!": 1661,
      "ample": 1662,
      "alth": 1663,
      "▁few": 1664,
      "▁state": 1665,
      "sub": 1666,
      "▁Or": 1667,
      "];": 1668,
      "▁size": 1669,
      "▁Sp": 1670,
      "▁without": 1671,
      "▁poss": 1672,
      "eq": 1673,
      "play": 1674,
      "▁expect": 1675,
      "▁second": 1676,
      "▁String": 1677,
      "uild": 1678,
      "▁next": 1679,
      "++": 1680,
      "requ": 1681,
      "▁All": 1682,
      "▁men": 1683,
      "▁When": 1684,
      "iter": 1685,
      "ament": 1686,
      "net": 1687,
      "▁К": 1688,
      "ron": 1689,
      "aint": 1690,
      "▁Is": 1691,
      "ве": 1692,
      "pend": 1693,
      "translation": 1694,
      "▁го": 1695,
      "че": 1696,
      "▁van": 1697,
      "▁another": 1698,
      "▁ret": 1699,
      "▁La": 1700,
      "Mod": 1701,
      "ION": 1702,
      "list": 1703,
      "▁post": 1704,
      "da": 1705,
      "ware": 1706,
      "▁word": 1707,
      "Error": 1708,
      "▁seem": 1709,
      "▁contin": 1710,
      "atic": 1711,
      "▁three": 1712,
      "Object": 1713,
      "▁partic": 1714,
      "$.": 1715,
      "▁mark": 1716,
      "▁vis": 1717,
      "rc": 1718,
      "▁sw": 1719,
      "ptions": 1720,
      "▁break": 1721,
      "▁things": 1722,
      "ute": 1723,
      "ui": 1724,
      "▁That": 1725,
      "urs": 1726,
      "gl": 1727,
      "ру": 1728,
      "▁file": 1729,
      "use": 1730,
      "igned": 1731,
      "part": 1732,
      "Un": 1733,
      "▁equ": 1734,
      "(&": 1735,
      "▁lead": 1736,
      "rm": 1737,
      "ained": 1738,
      "▁Be": 1739,
      "path": 1740,
      "▁small": 1741,
      "ager": 1742,
      "▁always": 1743,
      "▁El": 1744,
      "▁order": 1745,
      "▁ey": 1746,
      "▁won": 1747,
      "ape": 1748,
      "▁left": 1749,
      "ava": 1750,
      "item": 1751,
      "hor": 1752,
      "▁away": 1753,
      "bb": 1754,
      "fun": 1755,
      "▁Ind": 1756,
      "mb": 1757,
      "▁struct": 1758,
      "▁process": 1759,
      "▁support": 1760,
      ");\r": 1761,
      "ión": 1762,
      "LO": 1763,
      "▁oper": 1764,
      "UT": 1765,
      "▁·": 1766,
      "PE": 1767,
      "load": 1768,
      "off": 1769,
      "▁No": 1770,
      "ives": 1771,
      "ican": 1772,
      "▁ve": 1773,
      "action": 1774,
      "';": 1775,
      "▁vo": 1776,
      "$,": 1777,
      "▁Gr": 1778,
      "pre": 1779,
      "ny": 1780,
      "aining": 1781,
      "ior": 1782,
      "init": 1783,
      "lection": 1784,
      "arm": 1785,
      "umn": 1786,
      "ags": 1787,
      "ци": 1788,
      "ско": 1789,
      "version": 1790,
      "▁To": 1791,
      "▁ref": 1792,
      "stand": 1793,
      "▁At": 1794,
      "ift": 1795,
      "▁ein": 1796,
      "face": 1797,
      "bo": 1798,
      "ified": 1799,
      "ved": 1800,
      "sum": 1801,
      "une": 1802,
      "ital": 1803,
      "ump": 1804,
      "comm": 1805,
      "▁mov": 1806,
      "elt": 1807,
      "▁von": 1808,
      "velop": 1809,
      "ctor": 1810,
      "head": 1811,
      "cle": 1812,
      "▁build": 1813,
      "inc": 1814,
      ".'": 1815,
      "bs": 1816,
      "info": 1817,
      "chn": 1818,
      "▁week": 1819,
      "▁book": 1820,
      "HE": 1821,
      "bar": 1822,
      "icense": 1823,
      "▁What": 1824,
      "▁quest": 1825,
      "urch": 1826,
      "ato": 1827,
      "left": 1828,
      "▁mar": 1829,
      "▁top": 1830,
      "FF": 1831,
      "▁friend": 1832,
      "▁beh": 1833,
      "▁field": 1834,
      "▁against": 1835,
      "ract": 1836,
      "ization": 1837,
      "user": 1838,
      "chen": 1839,
      "▁keep": 1840,
      "AD": 1841,
      "itor": 1842,
      "▁non": 1843,
      "ird": 1844,
      "ope": 1845,
      "▁rest": 1846,
      "▁dev": 1847,
      "▁__": 1848,
      "▁una": 1849,
      "▁term": 1850,
      "IS": 1851,
      "▁pop": 1852,
      "rist": 1853,
      "▁since": 1854,
      "ves": 1855,
      "▁hard": 1856,
      "pi": 1857,
      "util": 1858,
      "▁soc": 1859,
      "ene": 1860,
      "Exception": 1861,
      "▁local": 1862,
      "▁direct": 1863,
      "▁sure": 1864,
      "▁bro": 1865,
      "▁da": 1866,
      "▁</": 1867,
      "▁current": 1868,
      "':": 1869,
      "Wh": 1870,
      "▁information": 1871,
      "▁ide": 1872,
      "▁better": 1873,
      "Text": 1874,
      "raph": 1875,
      "▁stand": 1876,
      "▁check": 1877,
      "▁к": 1878,
      "▁na": 1879,
      "((": 1880,
      "outh": 1881,
      "aps": 1882,
      "▁unt": 1883,
      "bf": 1884,
      "▁conf": 1885,
      "▁spe": 1886,
      "itle": 1887,
      "▁Col": 1888,
      "class": 1889,
      "ural": 1890,
      "bers": 1891,
      "MA": 1892,
      "ession": 1893,
      "▁М": 1894,
      "Info": 1895,
      "▁Br": 1896,
      "▁eas": 1897,
      "ervice": 1898,
      "aus": 1899,
      "ari": 1900,
      "по": 1901,
      "▁coun": 1902,
      "де": 1903,
      "())": 1904,
      "ling": 1905,
      "ED": 1906,
      "ably": 1907,
      "▁pat": 1908,
      "org": 1909,
      "▁id": 1910,
      "▁г": 1911,
      "▁tell": 1912,
      "lex": 1913,
      "▁allow": 1914,
      "reen": 1915,
      "my": 1916,
      "▁consider": 1917,
      "▁team": 1918,
      "lease": 1919,
      "htt": 1920,
      "▁Pr": 1921,
      "/**": 1922,
      "▁sing": 1923,
      "Requ": 1924,
      "Re": 1925,
      "ides": 1926,
      "ches": 1927,
      "▁object": 1928,
      "ially": 1929,
      "By": 1930,
      "ся": 1931,
      "ided": 1932,
      "▁free": 1933,
      "▁proble": 1934,
      "cite": 1935,
      "▁);": 1936,
      "ission": 1937,
      "▁during": 1938,
      "▁--": 1939,
      "ither": 1940,
      "ля": 1941,
      "▁leg": 1942,
      "▁sit": 1943,
      "ically": 1944,
      "▁key": 1945,
      "leg": 1946,
      "tra": 1947,
      "▁mom": 1948,
      "▁expl": 1949,
      "▁develop": 1950,
      "▁event": 1951,
      "▁NULL": 1952,
      "ohn": 1953,
      "▁///": 1954,
      "▁business": 1955,
      "ча": 1956,
      "▁prof": 1957,
      "error": 1958,
      "▁por": 1959,
      "▁commun": 1960,
      "Ind": 1961,
      "ium": 1962,
      "Test": 1963,
      "▁Ad": 1964,
      "ouble": 1965,
      "▁son": 1966,
      "rite": 1967,
      "ready": 1968,
      "▁{\r": 1969,
      "▁thing": 1970,
      "ня": 1971,
      "▁Ph": 1972,
      "ped": 1973,
      "сь": 1974,
      "ived": 1975,
      "You": 1976,
      "arl": 1977,
      "const": 1978,
      "../": 1979,
      "Se": 1980,
      "Sh": 1981,
      "▁power": 1982,
      "ribute": 1983,
      "▁My": 1984,
      "▁talk": 1985,
      "itch": 1986,
      "▁called": 1987,
      "▁came": 1988,
      "▁belie": 1989,
      "UR": 1990,
      "Add": 1991,
      "▁Res": 1992,
      "aster": 1993,
      "ella": 1994,
      "obal": 1995,
      "▁until": 1996,
      "▁hum": 1997,
      "CO": 1998,
      "ately": 1999,
      "####": 2000,
      "public": 2001,
      "[]": 2002,
      "▁room": 2003,
      "len": 2004,
      "▁family": 2005,
      "por": 2006,
      "▁program": 2007,
      "▁hist": 2008,
      "▁mus": 2009,
      "arge": 2010,
      "oney": 2011,
      "Im": 2012,
      "else": 2013,
      "ails": 2014,
      "af": 2015,
      "▁love": 2016,
      "är": 2017,
      "ases": 2018,
      "pha": 2019,
      "ours": 2020,
      "dis": 2021,
      "map": 2022,
      "iver": 2023,
      "ör": 2024,
      "▁Bl": 2025,
      "ateg": 2026,
      "state": 2027,
      "State": 2028,
      "ertain": 2029,
      "▁effect": 2030,
      "print": 2031,
      "▁big": 2032,
      "index": 2033,
      "▁pub": 2034,
      "vert": 2035,
      "ero": 2036,
      "md": 2037,
      "▁method": 2038,
      "▁game": 2039,
      "ries": 2040,
      "lete": 2041,
      "Item": 2042,
      "ING": 2043,
      "resent": 2044,
      "ality": 2045,
      "pty": 2046,
      "ley": 2047,
      "ocument": 2048,
      "▁beg": 2049,
      "TR": 2050,
      "}.": 2051,
      "▁school": 2052,
      "hes": 2053,
      "до": 2054,
      "▁lot": 2055,
      "▁took": 2056,
      "▁adv": 2057,
      "▁cap": 2058,
      "MP": 2059,
      "unk": 2060,
      "▁light": 2061,
      "▁later": 2062,
      ".,": 2063,
      "Key": 2064,
      "itions": 2065,
      "▁enough": 2066,
      "▁/**": 2067,
      "▁went": 2068,
      "ão": 2069,
      "▁though": 2070,
      "▁group": 2071,
      "▁mean": 2072,
      "ски": 2073,
      "AP": 2074,
      "▁num": 2075,
      "▁cond": 2076,
      "ні": 2077,
      "▁given": 2078,
      "▁why": 2079,
      "▁rece": 2080,
      "▁side": 2081,
      "▁far": 2082,
      "Context": 2083,
      "ме": 2084,
      "▁log": 2085,
      "View": 2086,
      "▁<<": 2087,
      "fil": 2088,
      "aces": 2089,
      "ency": 2090,
      "oad": 2091,
      "ered": 2092,
      "▁product": 2093,
      "ET": 2094,
      "▁param": 2095,
      "▁prote": 2096,
      "tes": 2097,
      "Time": 2098,
      "je": 2099,
      "olution": 2100,
      "▁ра": 2101,
      "▁month": 2102,
      "ference": 2103,
      "▁appe": 2104,
      "▁face": 2105,
      "ened": 2106,
      "tract": 2107,
      "▁less": 2108,
      "AS": 2109,
      "ée": 2110,
      "▁give": 2111,
      "▁kind": 2112,
      "▁count": 2113,
      "count": 2114,
      "▁stop": 2115,
      "▁gover": 2116,
      "ka": 2117,
      "▁error": 2118,
      "ences": 2119,
      "▁mil": 2120,
      "alf": 2121,
      "ync": 2122,
      "vious": 2123,
      "ho": 2124,
      "▁night": 2125,
      "era": 2126,
      "▁про": 2127,
      "▁sol": 2128,
      "men": 2129,
      "▁water": 2130,
      "ering": 2131,
      "▁lim": 2132,
      "Param": 2133,
      "▁house": 2134,
      "▁System": 2135,
      "▁pay": 2136,
      "▁:=": 2137,
      "uro": 2138,
      "oci": 2139,
      "zy": 2140,
      "▁already": 2141,
      ",\\": 2142,
      "length": 2143,
      "▁si": 2144,
      "▁interest": 2145,
      "aff": 2146,
      "cted": 2147,
      "ention": 2148,
      "▁до": 2149,
      "ume": 2150,
      "▁appro": 2151,
      "bre": 2152,
      "IG": 2153,
      "▁throw": 2154,
      "mathcal": 2155,
      "irl": 2156,
      "▁prom": 2157,
      "oss": 2158,
      "▁request": 2159,
      "equation": 2160,
      "ology": 2161,
      "mit": 2162,
      "▁pack": 2163,
      "ino": 2164,
      "array": 2165,
      "za": 2166,
      "til": 2167,
      "UN": 2168,
      "▁present": 2169,
      "▁organ": 2170,
      "File": 2171,
      "▁orig": 2172,
      "▁full": 2173,
      "istr": 2174,
      "▁flo": 2175,
      "hr": 2176,
      "▁assert": 2177,
      "ards": 2178,
      "url": 2179,
      "enn": 2180,
      "sl": 2181,
      "▁А": 2182,
      "▁cho": 2183,
      "▁level": 2184,
      "OT": 2185,
      "word": 2186,
      "▁body": 2187,
      "▁user": 2188,
      "ía": 2189,
      "Qu": 2190,
      "▁main": 2191,
      "AB": 2192,
      "ploy": 2193,
      "Event": 2194,
      "▁super": 2195,
      "oken": 2196,
      "▁Н": 2197,
      "As": 2198,
      "thers": 2199,
      "мо": 2200,
      "ку": 2201,
      "▁days": 2202,
      "▁done": 2203,
      "▁view": 2204,
      "side": 2205,
      "си": 2206,
      "');": 2207,
      "▁vol": 2208,
      "▁tot": 2209,
      "case": 2210,
      "▁aff": 2211,
      "Request": 2212,
      "▁Man": 2213,
      "\\\\": 2214,
      "▁John": 2215,
      "▁Б": 2216,
      "orth": 2217,
      "▁je": 2218,
      "▁une": 2219,
      "la": 2220,
      "[\"": 2221,
      "field": 2222,
      "▁US": 2223,
      "ico": 2224,
      "▁perform": 2225,
      "ailable": 2226,
      "Config": 2227,
      "Or": 2228,
      "▁model": 2229,
      "ales": 2230,
      "▁create": 2231,
      "▁ann": 2232,
      "ances": 2233,
      "IL": 2234,
      "ination": 2235,
      "▁Im": 2236,
      "ante": 2237,
      "ana": 2238,
      "ан": 2239,
      "▁told": 2240,
      "config": 2241,
      "\"]": 2242,
      "met": 2243,
      "lt": 2244,
      "▁text": 2245,
      "▁May": 2246,
      "▁org": 2247,
      "▁port": 2248,
      "Pl": 2249,
      "ently": 2250,
      "▁door": 2251,
      "US": 2252,
      "▁(*": 2253,
      "kt": 2254,
      "ES": 2255,
      "ential": 2256,
      "▁iss": 2257,
      "▁inc": 2258,
      "Node": 2259,
      "ively": 2260,
      "▁asked": 2261,
      "irt": 2262,
      "▁Te": 2263,
      "▁report": 2264,
      "▁chang": 2265,
      "сти": 2266,
      "▁along": 2267,
      "▁change": 2268,
      "Size": 2269,
      "▁ever": 2270,
      "▁occ": 2271,
      "ury": 2272,
      "▁mind": 2273,
      "order": 2274,
      "point": 2275,
      "сто": 2276,
      "▁whe": 2277,
      "▁important": 2278,
      "des": 2279,
      "▁Not": 2280,
      "▁writ": 2281,
      "▁eyes": 2282,
      "▁desc": 2283,
      "most": 2284,
      "ks": 2285,
      "▁bit": 2286,
      "▁▁▁": 2287,
      "▁success": 2288,
      "ть": 2289,
      "бо": 2290,
      "core": 2291,
      "}(": 2292,
      "▁array": 2293,
      "lin": 2294,
      "lish": 2295,
      "▁following": 2296,
      "Field": 2297,
      "ids": 2298,
      "hing": 2299,
      "▁cal": 2300,
      "Is": 2301,
      "aring": 2302,
      "lev": 2303,
      "alt": 2304,
      "CH": 2305,
      "▁dé": 2306,
      "alpha": 2307,
      "▁four": 2308,
      "▁law": 2309,
      "▁се": 2310,
      "iron": 2311,
      "▁disc": 2312,
      "се": 2313,
      "ken": 2314,
      "node": 2315,
      "▁Par": 2316,
      "▁Eng": 2317,
      "▁move": 2318,
      "▁License": 2319,
      "cul": 2320,
      "ione": 2321,
      ")$": 2322,
      "▁tw": 2323,
      "We": 2324,
      "sel": 2325,
      "▁With": 2326,
      "▁once": 2327,
      "Service": 2328,
      "bol": 2329,
      "ured": 2330,
      "ida": 2331,
      "▁Qu": 2332,
      "▁grow": 2333,
      "▁conne": 2334,
      "EX": 2335,
      "▁htt": 2336,
      "▁};": 2337,
      "▁walk": 2338,
      "▁init": 2339,
      "nal": 2340,
      "ender": 2341,
      "cription": 2342,
      "mber": 2343,
      "lected": 2344,
      "po": 2345,
      "▁nil": 2346,
      "▁prob": 2347,
      "чи": 2348,
      "▁Ste": 2349,
      "ison": 2350,
      "ands": 2351,
      "osed": 2352,
      "же": 2353,
      "▁His": 2354,
      "ür": 2355,
      "Man": 2356,
      "Element": 2357,
      "▁able": 2358,
      "Index": 2359,
      "search": 2360,
      "▁mag": 2361,
      "ар": 2362,
      "▁course": 2363,
      "▁Car": 2364,
      "▁exp": 2365,
      "aph": 2366,
      "▁mit": 2367,
      "▁doesn": 2368,
      "▁default": 2369,
      "/>": 2370,
      "aim": 2371,
      "▁service": 2372,
      "▁within": 2373,
      "angu": 2374,
      "▁Д": 2375,
      "uffer": 2376,
      "AG": 2377,
      "▁Do": 2378,
      "▁incre": 2379,
      "▁understand": 2380,
      "}^": 2381,
      "▁looked": 2382,
      "gen": 2383,
      "ailed": 2384,
      "▁е": 2385,
      "ayer": 2386,
      "▁One": 2387,
      "▁bas": 2388,
      "▁job": 2389,
      "mu": 2390,
      "but": 2391,
      "elta": 2392,
      "▁Christ": 2393,
      "uration": 2394,
      "▁record": 2395,
      "▁Univers": 2396,
      "ivid": 2397,
      "valid": 2398,
      "▁Р": 2399,
      "▁hold": 2400,
      "▁table": 2401,
      "ones": 2402,
      "link": 2403,
      "▁Ge": 2404,
      "▁offer": 2405,
      "ster": 2406,
      "Form": 2407,
      "={": 2408,
      "▁не": 2409,
      "stance": 2410,
      "▁govern": 2411,
      "▁techn": 2412,
      "▁prim": 2413,
      "*.": 2414,
      "cho": 2415,
      "max": 2416,
      "▁fore": 2417,
      "▁Can": 2418,
      "▁polit": 2419,
      "ories": 2420,
      "▁times": 2421,
      "▁dans": 2422,
      "▁air": 2423,
      "▁anything": 2424,
      "▁sever": 2425,
      "acy": 2426,
      "}_": 2427,
      "He": 2428,
      "▁least": 2429,
      "ips": 2430,
      "ENT": 2431,
      "do": 2432,
      "▁от": 2433,
      "▁cost": 2434,
      ".”": 2435,
      "▁children": 2436,
      "ability": 2437,
      "But": 2438,
      "▁path": 2439,
      "result": 2440,
      "acter": 2441,
      "▁element": 2442,
      "ee": 2443,
      "▁wait": 2444,
      "▁money": 2445,
      "Map": 2446,
      "td": 2447,
      "oin": 2448,
      "iving": 2449,
      "icht": 2450,
      "icy": 2451,
      "sch": 2452,
      "ste": 2453,
      "ду": 2454,
      "ored": 2455,
      "oud": 2456,
      "ille": 2457,
      "ised": 2458,
      "plication": 2459,
      "▁custom": 2460,
      "▁having": 2461,
      "ponent": 2462,
      "▁By": 2463,
      "ules": 2464,
      "ued": 2465,
      "atter": 2466,
      "And": 2467,
      "itive": 2468,
      "Def": 2469,
      "▁moment": 2470,
      "aterial": 2471,
      "Class": 2472,
      "ograph": 2473,
      "ike": 2474,
      "▁large": 2475,
      "▁####": 2476,
      "▁either": 2477,
      "duct": 2478,
      "▁Then": 2479,
      "▁Gu": 2480,
      "olean": 2481,
      "pert": 2482,
      "▁Get": 2483,
      "▁Ab": 2484,
      "▁short": 2485,
      "On": 2486,
      "iment": 2487,
      "▁project": 2488,
      "cript": 2489,
      "▁including": 2490,
      "ния": 2491,
      "▁making": 2492,
      "▁someone": 2493,
      "▁Fl": 2494,
      "▁sat": 2495,
      "▁company": 2496,
      "ocus": 2497,
      "pu": 2498,
      "▁God": 2499,
      "ification": 2500,
      "No": 2501,
      "▁sn": 2502,
      "ano": 2503,
      "ga": 2504,
      "▁au": 2505,
      "▁cou": 2506,
      "ás": 2507,
      "ended": 2508,
      "ту": 2509,
      "ober": 2510,
      "▁nothing": 2511,
      "▁net": 2512,
      "▁pot": 2513,
      "▁typ": 2514,
      "▁item": 2515,
      "rew": 2516,
      "Att": 2517,
      "▁young": 2518,
      "}\r": 2519,
      "nder": 2520,
      "start": 2521,
      "▁Sc": 2522,
      "*)": 2523,
      "▁enc": 2524,
      "▁women": 2525,
      "▁looking": 2526,
      "▁ро": 2527,
      "▁health": 2528,
      "Path": 2529,
      "▁After": 2530,
      "▁mult": 2531,
      "▁{\\": 2532,
      "▁land": 2533,
      "orld": 2534,
      "▁Des": 2535,
      "▁eng": 2536,
      "input": 2537,
      "▁Pol": 2538,
      "\"\"": 2539,
      "Code": 2540,
      "▁supp": 2541,
      "ainer": 2542,
      "heck": 2543,
      "▁mor": 2544,
      "▁mill": 2545,
      "▁aw": 2546,
      "fs": 2547,
      "▁doing": 2548,
      "tings": 2549,
      "ades": 2550,
      "▁toget": 2551,
      "▁certain": 2552,
      "▁together": 2553,
      "CE": 2554,
      "ideo": 2555,
      "▁American": 2556,
      "ony": 2557,
      "idd": 2558,
      "II": 2559,
      "ged": 2560,
      "ables": 2561,
      "▁ident": 2562,
      "iod": 2563,
      "▁parent": 2564,
      "For": 2565,
      "ambda": 2566,
      "ando": 2567,
      "=\\": 2568,
      "aged": 2569,
      "ending": 2570,
      "Int": 2571,
      "▁possible": 2572,
      "▁со": 2573,
      "ivity": 2574,
      "num": 2575,
      "rt": 2576,
      "ajor": 2577,
      "create": 2578,
      "ride": 2579,
      "▁knew": 2580,
      "bit": 2581,
      "itional": 2582,
      "▁lik": 2583,
      "▁Her": 2584,
      "ension": 2585,
      "\".": 2586,
      "oto": 2587,
      "▁exist": 2588,
      "aken": 2589,
      "▁actually": 2590,
      "ca": 2591,
      "▁Г": 2592,
      "хо": 2593,
      "inn": 2594,
      "All": 2595,
      "buf": 2596,
      "▁Me": 2597,
      "▁seen": 2598,
      "ops": 2599,
      "▁▁▁▁▁▁▁▁▁": 2600,
      "Not": 2601,
      "▁control": 2602,
      "▁respon": 2603,
      "};": 2604,
      "ilt": 2605,
      "isk": 2606,
      "▁bad": 2607,
      "▁often": 2608,
      "▁past": 2609,
      "aper": 2610,
      "▁reason": 2611,
      "eters": 2612,
      "▁wanted": 2613,
      "ura": 2614,
      "table": 2615,
      "ormal": 2616,
      "width": 2617,
      "га": 2618,
      "ptr": 2619,
      "▁dest": 2620,
      "▁design": 2621,
      "▁sound": 2622,
      "▁plan": 2623,
      "▁base": 2624,
      "hand": 2625,
      "gs": 2626,
      "▁says": 2627,
      "function": 2628,
      "▁tri": 2629,
      "mt": 2630,
      "▁invest": 2631,
      "▁available": 2632,
      "ayout": 2633,
      "▁och": 2634,
      "▁las": 2635,
      "illed": 2636,
      "Val": 2637,
      "▁ф": 2638,
      "iety": 2639,
      "mon": 2640,
      "Hand": 2641,
      "Fr": 2642,
      "iam": 2643,
      "pace": 2644,
      "▁Ob": 2645,
      "▁para": 2646,
      "▁meet": 2647,
      "▁sum": 2648,
      "Message": 2649,
      "ici": 2650,
      "▁known": 2651,
      "▁gen": 2652,
      "amma": 2653,
      "arr": 2654,
      "▁tre": 2655,
      "oke": 2656,
      "uth": 2657,
      "~\\": 2658,
      "▁experience": 2659,
      "icle": 2660,
      "▁Il": 2661,
      "▁sent": 2662,
      "▁others": 2663,
      "▁soft": 2664,
      "IP": 2665,
      "▁max": 2666,
      "ball": 2667,
      "▁market": 2668,
      "▁pour": 2669,
      "pression": 2670,
      "eps": 2671,
      "▁saw": 2672,
      "▁across": 2673,
      "▁Su": 2674,
      "Over": 2675,
      "ние": 2676,
      "ulation": 2677,
      "▁Reg": 2678,
      "▁+=": 2679,
      "body": 2680,
      ")\\": 2681,
      "▁print": 2682,
      "▁при": 2683,
      "db": 2684,
      "ources": 2685,
      "wards": 2686,
      "▁black": 2687,
      "со": 2688,
      "ili": 2689,
      "▁Ed": 2690,
      "▁complet": 2691,
      "▁single": 2692,
      "▁IN": 2693,
      "ached": 2694,
      "bt": 2695,
      "▁code": 2696,
      "▁bool": 2697,
      "▁area": 2698,
      "▁require": 2699,
      "▁problem": 2700,
      "aced": 2701,
      "Equ": 2702,
      "▁config": 2703,
      "vec": 2704,
      "ney": 2705,
      "cy": 2706,
      "Al": 2707,
      "▁account": 2708,
      "ymbol": 2709,
      "▁ste": 2710,
      "ges": 2711,
      "Array": 2712,
      "empl": 2713,
      "context": 2714,
      "Des": 2715,
      "Result": 2716,
      "ecut": 2717,
      "▁target": 2718,
      "▁getting": 2719,
      "\"/>": 2720,
      "ogle": 2721,
      "▁himself": 2722,
      "▁wasn": 2723,
      "▁block": 2724,
      "▁ant": 2725,
      "▁York": 2726,
      "▁become": 2727,
      "iff": 2728,
      "ports": 2729,
      "reate": 2730,
      "='": 2731,
      "cd": 2732,
      "location": 2733,
      "ет": 2734,
      "▁access": 2735,
      "gress": 2736,
      "ros": 2737,
      "Up": 2738,
      "▁working": 2739,
      "▁Am": 2740,
      "iqu": 2741,
      "cer": 2742,
      "▁((": 2743,
      "▁Per": 2744,
      "▁func": 2745,
      "▁girl": 2746,
      "▁above": 2747,
      "pen": 2748,
      "пи": 2749,
      "ido": 2750,
      "▁version": 2751,
      "TY": 2752,
      "▁;": 2753,
      "mary": 2754,
      "abled": 2755,
      "annel": 2756,
      "▁example": 2757,
      "▁context": 2758,
      "OP": 2759,
      "▁red": 2760,
      "▁cir": 2761,
      "sm": 2762,
      "Log": 2763,
      "▁space": 2764,
      "▁fut": 2765,
      "▁Gener": 2766,
      "ills": 2767,
      "▁dri": 2768,
      "_.": 2769,
      "▁felt": 2770,
      "▁offic": 2771,
      "▁===": 2772,
      "ii": 2773,
      "▁started": 2774,
      "▁Т": 2775,
      "▁});": 2776,
      "js": 2777,
      "▁front": 2778,
      "▁almost": 2779,
      "irm": 2780,
      "!\"": 2781,
      "signed": 2782,
      "▁yet": 2783,
      "▁trad": 2784,
      "ients": 2785,
      "ama": 2786,
      "▁input": 2787,
      "lim": 2788,
      "па": 2789,
      "▁ка": 2790,
      "▁camp": 2791,
      "ibr": 2792,
      "fect": 2793,
      "unt": 2794,
      "▁half": 2795,
      "▁cover": 2796,
      "anguage": 2797,
      "▁ben": 2798,
      "ha": 2799,
      "▁diff": 2800,
      "_\\": 2801,
      "▁об": 2802,
      "])": 2803,
      "odes": 2804,
      "hel": 2805,
      "ios": 2806,
      "▁О": 2807,
      "▁mot": 2808,
      "▁social": 2809,
      "////////": 2810,
      "▁stre": 2811,
      "ground": 2812,
      "ів": 2813,
      "object": 2814,
      "ples": 2815,
      "reed": 2816,
      "▁een": 2817,
      "▁based": 2818,
      "▁range": 2819,
      "An": 2820,
      "urg": 2821,
      "▁learn": 2822,
      "▁exc": 2823,
      "▁imp": 2824,
      "▁means": 2825,
      "▁wur": 2826,
      "ends": 2827,
      "void": 2828,
      "▁std": 2829,
      "▁particular": 2830,
      "ja": 2831,
      "▁source": 2832,
      "default": 2833,
      "py": 2834,
      "▁als": 2835,
      "scri": 2836,
      "status": 2837,
      "▁story": 2838,
      "▁begin": 2839,
      "▁position": 2840,
      "▁special": 2841,
      "php": 2842,
      "▁bar": 2843,
      "▁pract": 2844,
      "call": 2845,
      "▁das": 2846,
      "▁rad": 2847,
      "▁close": 2848,
      "www": 2849,
      "ере": 2850,
      "gu": 2851,
      "▁Er": 2852,
      "▁dom": 2853,
      "AM": 2854,
      "▁bed": 2855,
      "▁several": 2856,
      "aul": 2857,
      "box": 2858,
      "▁low": 2859,
      "pack": 2860,
      "Reg": 2861,
      "Of": 2862,
      "atures": 2863,
      "én": 2864,
      "eder": 2865,
      "uilder": 2866,
      "cast": 2867,
      "conom": 2868,
      "raft": 2869,
      "▁makes": 2870,
      "Loc": 2871,
      "http": 2872,
      "▁abs": 2873,
      "resh": 2874,
      "▁Will": 2875,
      "break": 2876,
      "▁options": 2877,
      "fort": 2878,
      "▁из": 2879,
      "▁anal": 2880,
      "▁env": 2881,
      "({": 2882,
      "event": 2883,
      "▁page": 2884,
      "ternal": 2885,
      "▁distribut": 2886,
      "▁food": 2887,
      "check": 2888,
      "CK": 2889,
      "▁во": 2890,
      "assert": 2891,
      "án": 2892,
      "base": 2893,
      "▁whole": 2894,
      "ación": 2895,
      "OD": 2896,
      "▁turned": 2897,
      "igma": 2898,
      "▁response": 2899,
      "▁University": 2900,
      "▁div": 2901,
      "apter": 2902,
      "▁results": 2903,
      "▁represent": 2904,
      "▁everything": 2905,
      "▁Cent": 2906,
      "utes": 2907,
      "rix": 2908,
      "▁Some": 2909,
      "▁behind": 2910,
      "▁creat": 2911,
      "place": 2912,
      "su": 2913,
      "▁Part": 2914,
      "umb": 2915,
      "mathbb": 2916,
      "ping": 2917,
      "▁match": 2918,
      "Out": 2919,
      "dom": 2920,
      "▁situ": 2921,
      "dr": 2922,
      "ara": 2923,
      "▁window": 2924,
      "ns": 2925,
      "lished": 2926,
      "▁Ver": 2927,
      "▁message": 2928,
      "▁Em": 2929,
      "▁human": 2930,
      "perties": 2931,
      "лу": 2932,
      "lem": 2933,
      "ORT": 2934,
      "▁early": 2935,
      "▁quick": 2936,
      "▁та": 2937,
      "roid": 2938,
      "▁country": 2939,
      "▁due": 2940,
      "▁Die": 2941,
      "▁trying": 2942,
      "▁live": 2943,
      "▁press": 2944,
      "INT": 2945,
      "With": 2946,
      "oved": 2947,
      "▁specific": 2948,
      "▁fall": 2949,
      "uk": 2950,
      "yl": 2951,
      "▁general": 2952,
      "му": 2953,
      "ну": 2954,
      "▁names": 2955,
      "where": 2956,
      "▁These": 2957,
      "▁sil": 2958,
      "ét": 2959,
      "▁ener": 2960,
      "▁Now": 2961,
      "▁address": 2962,
      "Response": 2963,
      "▁Mr": 2964,
      "▁answ": 2965,
      "▁film": 2966,
      "▁strong": 2967,
      "▁bring": 2968,
      "▁United": 2969,
      "▁ge": 2970,
      "▁woman": 2971,
      "New": 2972,
      "ett": 2973,
      ".)": 2974,
      "ename": 2975,
      "▁AN": 2976,
      "▁describ": 2977,
      "за": 2978,
      "ising": 2979,
      "EL": 2980,
      "ql": 2981,
      "▁fur": 2982,
      "ying": 2983,
      "▁Cal": 2984,
      "▁Dr": 2985,
      "ERR": 2986,
      "▁\\\\": 2987,
      "angle": 2988,
      "urope": 2989,
      "▁city": 2990,
      "▁index": 2991,
      "▁action": 2992,
      "▁However": 2993,
      "▁fig": 2994,
      "ias": 2995,
      "▁question": 2996,
      "▁Jan": 2997,
      "▁Med": 2998,
      "▁Cont": 2999,
      "amed": 3000,
      "Call": 3001,
      "plied": 3002,
      "tty": 3003,
      "▁individ": 3004,
      "page": 3005,
      "▁comb": 3006,
      "section": 3007,
      "▁Comm": 3008,
      "uel": 3009,
      "▁het": 3010,
      "▁Bar": 3011,
      "agement": 3012,
      "fin": 3013,
      "▁major": 3014,
      "oper": 3015,
      "api": 3016,
      "room": 3017,
      "▁„": 3018,
      "▁hab": 3019,
      "зи": 3020,
      "▁auf": 3021,
      "current": 3022,
      "ni": 3023,
      "▁include": 3024,
      "▁qui": 3025,
      "va": 3026,
      "UE": 3027,
      "▁idea": 3028,
      ",'": 3029,
      "▁required": 3030,
      "▁heart": 3031,
      "ibility": 3032,
      "iction": 3033,
      "Model": 3034,
      "write": 3035,
      "▁content": 3036,
      "▁wer": 3037,
      "▁hands": 3038,
      "zen": 3039,
      "char": 3040,
      "}^{": 3041,
      "▁mass": 3042,
      "ply": 3043,
      "▁nat": 3044,
      "rel": 3045,
      "▁dat": 3046,
      "================": 3047,
      "imal": 3048,
      "▁probably": 3049,
      "unch": 3050,
      "▁mer": 3051,
      "ilar": 3052,
      "ires": 3053,
      "▁watch": 3054,
      "SI": 3055,
      "▁cult": 3056,
      "▁mother": 3057,
      "▁government": 3058,
      "ording": 3059,
      "▁()": 3060,
      "▁pri": 3061,
      "▁link": 3062,
      "group": 3063,
      "OL": 3064,
      "▁near": 3065,
      "▁Ser": 3066,
      "Ser": 3067,
      "ito": 3068,
      "▁values": 3069,
      "▁java": 3070,
      "fully": 3071,
      "Count": 3072,
      "++)": 3073,
      "▁vi": 3074,
      "▁white": 3075,
      "mat": 3076,
      "ctx": 3077,
      "▁conc": 3078,
      "▁stay": 3079,
      "ging": 3080,
      "▁clear": 3081,
      "▁copy": 3082,
      "selves": 3083,
      "▁provide": 3084,
      "▁words": 3085,
      "comp": 3086,
      "args": 3087,
      "▁pick": 3088,
      "uly": 3089,
      "▁vari": 3090,
      "▁believe": 3091,
      "▁Co": 3092,
      "Property": 3093,
      "Group": 3094,
      "▁ten": 3095,
      "ischen": 3096,
      "eturn": 3097,
      "ival": 3098,
      "System": 3099,
      "CL": 3100,
      "bed": 3101,
      "▁total": 3102,
      "▁ist": 3103,
      "Input": 3104,
      "uments": 3105,
      "Manager": 3106,
      "ши": 3107,
      "▁win": 3108,
      "leep": 3109,
      "PI": 3110,
      "ного": 3111,
      "ruction": 3112,
      "▁inte": 3113,
      "App": 3114,
      "avor": 3115,
      "▁respect": 3116,
      "ators": 3117,
      "▁como": 3118,
      "▁cut": 3119,
      "FA": 3120,
      "▁sus": 3121,
      "▁App": 3122,
      "rect": 3123,
      "FI": 3124,
      "▁began": 3125,
      "oph": 3126,
      "▁sort": 3127,
      "though": 3128,
      "је": 3129,
      "icro": 3130,
      "Trans": 3131,
      "лі": 3132,
      "▁Inst": 3133,
      "request": 3134,
      "ор": 3135,
      "▁relations": 3136,
      "-\\": 3137,
      "Status": 3138,
      "жи": 3139,
      "▁father": 3140,
      "cs": 3141,
      "▁sex": 3142,
      "isch": 3143,
      "vo": 3144,
      "}_{": 3145,
      "aven": 3146,
      "▁Ne": 3147,
      "ATE": 3148,
      "itten": 3149,
      "▁ess": 3150,
      "TH": 3151,
      "ights": 3152,
      "▁hom": 3153,
      "▁today": 3154,
      "▁zu": 3155,
      "ita": 3156,
      "▁isn": 3157,
      "▁opt": 3158,
      "ogn": 3159,
      "ér": 3160,
      "▁whether": 3161,
      "ixed": 3162,
      "phi": 3163,
      "idence": 3164,
      "ald": 3165,
      "Client": 3166,
      "At": 3167,
      "▁death": 3168,
      "▁Let": 3169,
      "ius": 3170,
      "ги": 3171,
      "▁ре": 3172,
      "ben": 3173,
      ")\r": 3174,
      "ba": 3175,
      "></": 3176,
      "avel": 3177,
      "▁miss": 3178,
      "▁node": 3179,
      "▁($": 3180,
      "▁color": 3181,
      "▁obt": 3182,
      "tot": 3183,
      "▁пре": 3184,
      "CON": 3185,
      "ette": 3186,
      "▁Go": 3187,
      "Fl": 3188,
      "▁Don": 3189,
      "▁crit": 3190,
      "▁ri": 3191,
      "post": 3192,
      "▁->": 3193,
      "▁Just": 3194,
      "What": 3195,
      "atal": 3196,
      "▁Min": 3197,
      "▁Cor": 3198,
      "▁dark": 3199,
      "rl": 3200,
      "▁larg": 3201,
      "ding": 3202,
      "ón": 3203,
      "ouch": 3204,
      "▁um": 3205,
      "▁elect": 3206,
      "▁dam": 3207,
      "▁needs": 3208,
      "▁matter": 3209,
      "▁rather": 3210,
      "from": 3211,
      "ram": 3212,
      "▁і": 3213,
      "▁taken": 3214,
      "▁deal": 3215,
      "▁period": 3216,
      "▁Mon": 3217,
      "▁Л": 3218,
      "▁Aug": 3219,
      "run": 3220,
      "mm": 3221,
      "elle": 3222,
      "▁export": 3223,
      "Sc": 3224,
      "vis": 3225,
      "abor": 3226,
      "▁author": 3227,
      "ère": 3228,
      "▁remember": 3229,
      "▁redu": 3230,
      "▁List": 3231,
      "▁focus": 3232,
      "▁character": 3233,
      "Table": 3234,
      "▁individual": 3235,
      "▁needed": 3236,
      "bum": 3237,
      "▁style": 3238,
      "inary": 3239,
      "ersion": 3240,
      "oute": 3241,
      "▁Pe": 3242,
      "▁hon": 3243,
      "mut": 3244,
      "see": 3245,
      "▁became": 3246,
      "▁dire": 3247,
      "▁document": 3248,
      "sec": 3249,
      "ening": 3250,
      "▁visit": 3251,
      "▁fac": 3252,
      "tx": 3253,
      "down": 3254,
      "plit": 3255,
      "▁phys": 3256,
      "itting": 3257,
      "joy": 3258,
      "▁hig": 3259,
      "This": 3260,
      "Ad": 3261,
      "▁Brit": 3262,
      "▁employ": 3263,
      "▁ré": 3264,
      "▁т": 3265,
      "lambda": 3266,
      "▁impro": 3267,
      "▁Bo": 3268,
      "iding": 3269,
      "▁online": 3270,
      "mem": 3271,
      "atform": 3272,
      "▁War": 3273,
      "▁cas": 3274,
      "asure": 3275,
      "▁pur": 3276,
      "medi": 3277,
      "Dis": 3278,
      "▁Germ": 3279,
      "pc": 3280,
      "са": 3281,
      "▁friends": 3282,
      "▁Mc": 3283,
      "DI": 3284,
      "▁plus": 3285,
      "▁Set": 3286,
      "iddle": 3287,
      "itut": 3288,
      "▁depend": 3289,
      "rest": 3290,
      "▁Je": 3291,
      "▁hor": 3292,
      "▁entire": 3293,
      "Query": 3294,
      "▁refer": 3295,
      "▁hot": 3296,
      "▁Aust": 3297,
      "▁common": 3298,
      "ці": 3299,
      "▁pull": 3300,
      "▁Add": 3301,
      "▁season": 3302,
      "▁invol": 3303,
      "▁World": 3304,
      "client": 3305,
      "now": 3306,
      "true": 3307,
      "append": 3308,
      "itted": 3309,
      "empt": 3310,
      "){": 3311,
      "///": 3312,
      "▁prop": 3313,
      "imate": 3314,
      "SC": 3315,
      "▁hours": 3316,
      "▁hope": 3317,
      "andom": 3318,
      "ід": 3319,
      "istic": 3320,
      "▁property": 3321,
      "sg": 3322,
      ">(": 3323,
      "▁write": 3324,
      "mark": 3325,
      "find": 3326,
      "▁personal": 3327,
      "][": 3328,
      "rown": 3329,
      "Ph": 3330,
      "▁foot": 3331,
      "▁research": 3332,
      "ironment": 3333,
      "▁nom": 3334,
      "▁instance": 3335,
      "▁held": 3336,
      "De": 3337,
      "▁members": 3338,
      "▁fire": 3339,
      "▁history": 3340,
      "▁map": 3341,
      "▁discuss": 3342,
      "▁espec": 3343,
      "▁taking": 3344,
      "▁services": 3345,
      "▁indust": 3346,
      "igen": 3347,
      "▁Ass": 3348,
      "▁expected": 3349,
      "▁wurde": 3350,
      "dir": 3351,
      "▁among": 3352,
      "▁sugg": 3353,
      "rec": 3354,
      "Inter": 3355,
      "block": 3356,
      "▁Rep": 3357,
      "▁pain": 3358,
      "▁five": 3359,
      "▁fund": 3360,
      "rid": 3361,
      "arrow": 3362,
      "▁treat": 3363,
      "▁heard": 3364,
      "▁determ": 3365,
      "icult": 3366,
      "▁sense": 3367,
      "ese": 3368,
      "Fun": 3369,
      "▁months": 3370,
      "json": 3371,
      ",”": 3372,
      "TI": 3373,
      "orage": 3374,
      "▁У": 3375,
      "▁everyone": 3376,
      "▁clos": 3377,
      "iers": 3378,
      "airs": 3379,
      "define": 3380,
      "If": 3381,
      "osp": 3382,
      "▁wonder": 3383,
      "NA": 3384,
      "query": 3385,
      "pg": 3386,
      "ites": 3387,
      "▁material": 3388,
      "yd": 3389,
      "Read": 3390,
      "html": 3391,
      "TE": 3392,
      "Pr": 3393,
      "^{\\": 3394,
      "▁gave": 3395,
      "▁IS": 3396,
      "▁suggest": 3397,
      "Override": 3398,
      "rodu": 3399,
      "From": 3400,
      "▁Europe": 3401,
      "PO": 3402,
      "▁soon": 3403,
      "host": 3404,
      "▁Ber": 3405,
      "....": 3406,
      "▁Har": 3407,
      "▁energy": 3408,
      "><": 3409,
      "aves": 3410,
      "▁easy": 3411,
      "▁bre": 3412,
      "frame": 3413,
      "▁ground": 3414,
      "with": 3415,
      "▁inside": 3416,
      "ief": 3417,
      "▁mo": 3418,
      "pm": 3419,
      "pan": 3420,
      "igr": 3421,
      "▁om": 3422,
      "next": 3423,
      "omet": 3424,
      "▁status": 3425,
      "▁}\r": 3426,
      "▁music": 3427,
      "ora": 3428,
      "iles": 3429,
      "ki": 3430,
      "▁esc": 3431,
      "▁bes": 3432,
      "▁Dis": 3433,
      "▁host": 3434,
      "▁comes": 3435,
      "used": 3436,
      "▁future": 3437,
      "lick": 3438,
      "aid": 3439,
      "▁compet": 3440,
      "▁voice": 3441,
      "▁load": 3442,
      "evel": 3443,
      "▁neg": 3444,
      "▁command": 3445,
      "▁für": 3446,
      "▁pie": 3447,
      "▁quite": 3448,
      "▁blo": 3449,
      "agn": 3450,
      "ilon": 3451,
      "▁claim": 3452,
      "▁teach": 3453,
      "▁previous": 3454,
      "▁site": 3455,
      "color": 3456,
      "attr": 3457,
      "▁accept": 3458,
      "▁exact": 3459,
      ")}": 3460,
      "aft": 3461,
      "roller": 3462,
      "он": 3463,
      "oo": 3464,
      "Date": 3465,
      "▁ou": 3466,
      "sy": 3467,
      "▁pretty": 3468,
      "▁image": 3469,
      "BU": 3470,
      "▁terms": 3471,
      "▁search": 3472,
      "▁è": 3473,
      "▁Val": 3474,
      "▁‘": 3475,
      "▁Dav": 3476,
      "MS": 3477,
      "src": 3478,
      "mar": 3479,
      "incip": 3480,
      "▁couldn": 3481,
      "ados": 3482,
      "▁dro": 3483,
      "beta": 3484,
      "imum": 3485,
      "▁minutes": 3486,
      "▁grand": 3487,
      "▁»": 3488,
      "▁Our": 3489,
      "Str": 3490,
      "VER": 3491,
      "maz": 3492,
      "▁original": 3493,
      "ini": 3494,
      "▁coll": 3495,
      "loat": 3496,
      "▁os": 3497,
      "});": 3498,
      "summary": 3499,
      "▁wall": 3500,
      "Color": 3501,
      "▁vers": 3502,
      "▁della": 3503,
      "▁\"\"\"": 3504,
      "mathbf": 3505,
      "zer": 3506,
      "aur": 3507,
      "▁track": 3508,
      "▁associ": 3509,
      "▁suff": 3510,
      "▁inde": 3511,
      "ague": 3512,
      "▁Apr": 3513,
      "Le": 3514,
      "roups": 3515,
      "board": 3516,
      "▁attack": 3517,
      "▁series": 3518,
      "▁instead": 3519,
      "ham": 3520,
      "book": 3521,
      "▁six": 3522,
      "▁Rec": 3523,
      "▁coming": 3524,
      "urt": 3525,
      "▁global": 3526,
      "▁necess": 3527,
      "lege": 3528,
      "Pos": 3529,
      "▁leave": 3530,
      "▁pod": 3531,
      "ategory": 3532,
      "uz": 3533,
      "▁deep": 3534,
      "▁km": 3535,
      "▁outside": 3536,
      "has": 3537,
      "options": 3538,
      "▁Sm": 3539,
      "Sub": 3540,
      "rows": 3541,
      "▁ви": 3542,
      "▁States": 3543,
      "▁wrong": 3544,
      "▁however": 3545,
      "▁sem": 3546,
      "▁catch": 3547,
      "\"),": 3548,
      "model": 3549,
      "▁http": 3550,
      "▁option": 3551,
      "rie": 3552,
      "▁ста": 3553,
      "▁är": 3554,
      "▁enjoy": 3555,
      "nu": 3556,
      "▁pas": 3557,
      "▁amount": 3558,
      "▁respons": 3559,
      "▁Intern": 3560,
      "▁myself": 3561,
      "▁opp": 3562,
      "▁Sim": 3563,
      "▁sens": 3564,
      "Ed": 3565,
      "▁(\\": 3566,
      "▁students": 3567,
      "нов": 3568,
      "▁points": 3569,
      "arning": 3570,
      "UP": 3571,
      "elling": 3572,
      "▁cannot": 3573,
      "Be": 3574,
      "▁length": 3575,
      "null": 3576,
      "uint": 3577,
      "wise": 3578,
      "▁double": 3579,
      "ige": 3580,
      "ista": 3581,
      "▁estab": 3582,
      "anch": 3583,
      "▁ago": 3584,
      "▁bound": 3585,
      "▁fa": 3586,
      "▁clean": 3587,
      "▁simple": 3588,
      "mi": 3589,
      "########": 3590,
      "ifier": 3591,
      "▁General": 3592,
      "▁seemed": 3593,
      "ena": 3594,
      "▁age": 3595,
      "ной": 3596,
      "endif": 3597,
      "AA": 3598,
      "▁caus": 3599,
      "▁educ": 3600,
      "▁cell": 3601,
      "Gener": 3602,
      "space": 3603,
      "▁Your": 3604,
      "▁beaut": 3605,
      "gt": 3606,
      "▁limit": 3607,
      "▁date": 3608,
      "Util": 3609,
      "▁National": 3610,
      "ows": 3611,
      "pat": 3612,
      "quad": 3613,
      "▁ok": 3614,
      "▁И": 3615,
      "arth": 3616,
      "hat": 3617,
      "▁community": 3618,
      "oul": 3619,
      "▁econom": 3620,
      "Component": 3621,
      "bor": 3622,
      "usion": 3623,
      "▁below": 3624,
      "earch": 3625,
      "ores": 3626,
      "ban": 3627,
      "▁August": 3628,
      "▁further": 3629,
      "sigma": 3630,
      "▁ha": 3631,
      "ji": 3632,
      "▁comput": 3633,
      "гра": 3634,
      "▁None": 3635,
      "▁ter": 3636,
      "▁anyone": 3637,
      "▁task": 3638,
      "ente": 3639,
      "position": 3640,
      "pped": 3641,
      "▁aus": 3642,
      "Attribute": 3643,
      "req": 3644,
      "addr": 3645,
      "light": 3646,
      "ше": 3647,
      "▁arm": 3648,
      "cover": 3649,
      "upport": 3650,
      "▁Gl": 3651,
      "▁San": 3652,
      "▁writing": 3653,
      "▁lost": 3654,
      "▁Mark": 3655,
      "▁gre": 3656,
      "TYPE": 3657,
      "▁South": 3658,
      "▁perfect": 3659,
      "▁package": 3660,
      "▁infl": 3661,
      "haps": 3662,
      "▁Ang": 3663,
      "respon": 3664,
      "ris": 3665,
      "ptember": 3666,
      "▁building": 3667,
      "VAL": 3668,
      "free": 3669,
      "▁ce": 3670,
      "HT": 3671,
      "▁From": 3672,
      "ds": 3673,
      "roy": 3674,
      "achine": 3675,
      "nown": 3676,
      "▁saying": 3677,
      "▁бы": 3678,
      "oe": 3679,
      "Ref": 3680,
      "▁network": 3681,
      "parent": 3682,
      "uge": 3683,
      "▁similar": 3684,
      ">\r": 3685,
      "Builder": 3686,
      "▁living": 3687,
      "▁continue": 3688,
      "anger": 3689,
      "▁Red": 3690,
      "▁hair": 3691,
      "anced": 3692,
      "ians": 3693,
      "▁dead": 3694,
      "▁boolean": 3695,
      "ication": 3696,
      "▁де": 3697,
      "▁client": 3698,
      "uct": 3699,
      "▁•": 3700,
      "SP": 3701,
      "older": 3702,
      "пе": 3703,
      "udio": 3704,
      "▁deg": 3705,
      "asing": 3706,
      "▁step": 3707,
      "▁pers": 3708,
      "ção": 3709,
      "obj": 3710,
      "oz": 3711,
      "ula": 3712,
      "▁round": 3713,
      "▁upon": 3714,
      "▁resource": 3715,
      "▁valid": 3716,
      "▁II": 3717,
      "bug": 3718,
      "std": 3719,
      "▁ang": 3720,
      "span": 3721,
      "pol": 3722,
      "ialog": 3723,
      "▁phot": 3724,
      "?'": 3725,
      "DB": 3726,
      "▁Fin": 3727,
      "VE": 3728,
      "Em": 3729,
      "▁cam": 3730,
      "target": 3731,
      "pected": 3732,
      "Hel": 3733,
      "▁ut": 3734,
      "▁Test": 3735,
      "▁town": 3736,
      "align": 3737,
      "▁webs": 3738,
      "inner": 3739,
      "augh": 3740,
      "▁except": 3741,
      "▁initial": 3742,
      "enty": 3743,
      "lich": 3744,
      "▁Aut": 3745,
      "top": 3746,
      "▁fail": 3747,
      "ona": 3748,
      "▁benef": 3749,
      "anks": 3750,
      "ische": 3751,
      ".*": 3752,
      "▁signific": 3753,
      "▁contact": 3754,
      "Rec": 3755,
      "ario": 3756,
      "ottom": 3757,
      "▁relationship": 3758,
      "]);": 3759,
      "▁На": 3760,
      "Head": 3761,
      "format": 3762,
      "▁ét": 3763,
      "▁More": 3764,
      "actory": 3765,
      "portun": 3766,
      "+\\": 3767,
      "▁simply": 3768,
      "▁ep": 3769,
      "▁Russ": 3770,
      "ní": 3771,
      "ua": 3772,
      "erc": 3773,
      "▁longer": 3774,
      "inition": 3775,
      "ector": 3776,
      "aption": 3777,
      "▁profess": 3778,
      "▁Mus": 3779,
      "ilities": 3780,
      "ès": 3781,
      "▁Act": 3782,
      "offset": 3783,
      "▁ill": 3784,
      "band": 3785,
      "▁Ag": 3786,
      "▁По": 3787,
      "би": 3788,
      "content": 3789,
      "icon": 3790,
      "▁works": 3791,
      "ynam": 3792,
      "plement": 3793,
      "Resource": 3794,
      "Action": 3795,
      "▁difficult": 3796,
      "▁West": 3797,
      "▁video": 3798,
      "▁THE": 3799,
      "▁decl": 3800,
      "ondon": 3801,
      "ded": 3802,
      "}{\\": 3803,
      "ocr": 3804,
      "▁City": 3805,
      "▁я": 3806,
      "uer": 3807,
      "cz": 3808,
      "▁imag": 3809,
      "cr": 3810,
      "ete": 3811,
      "idget": 3812,
      "▁Mod": 3813,
      "▁forward": 3814,
      "▁pict": 3815,
      "orge": 3816,
      "▁subject": 3817,
      "update": 3818,
      "attle": 3819,
      "sa": 3820,
      "▁Ant": 3821,
      "▁running": 3822,
      "▁sal": 3823,
      "conne": 3824,
      "▁output": 3825,
      "adata": 3826,
      "ML": 3827,
      "Check": 3828,
      "ledge": 3829,
      "▁paper": 3830,
      "params": 3831,
      "avy": 3832,
      "▁af": 3833,
      "▁eine": 3834,
      "▁jour": 3835,
      "AY": 3836,
      "▁itself": 3837,
      "▁Str": 3838,
      "style": 3839,
      "That": 3840,
      "▁million": 3841,
      "▁language": 3842,
      "OS": 3843,
      "ving": 3844,
      "▁ма": 3845,
      "▁то": 3846,
      ")(": 3847,
      "▁buy": 3848,
      "./": 3849,
      "▁...": 3850,
      "▁tried": 3851,
      "▁compl": 3852,
      "▁activ": 3853,
      "apped": 3854,
      "Button": 3855,
      "Token": 3856,
      "▁provided": 3857,
      "iber": 3858,
      "▁created": 3859,
      "curity": 3860,
      "End": 3861,
      "ał": 3862,
      "uster": 3863,
      "izing": 3864,
      "omb": 3865,
      "▁sich": 3866,
      "▁compon": 3867,
      "▁See": 3868,
      "▁uint": 3869,
      "▁label": 3870,
      "vol": 3871,
      "ów": 3872,
      "ocol": 3873,
      "▁received": 3874,
      "▁intern": 3875,
      "це": 3876,
      "Run": 3877,
      "▁road": 3878,
      "▁Oct": 3879,
      "▁Comp": 3880,
      "▁study": 3881,
      "▁те": 3882,
      "Act": 3883,
      "▁tour": 3884,
      "▁State": 3885,
      "▁added": 3886,
      "https": 3887,
      "stream": 3888,
      "▁lower": 3889,
      "▁box": 3890,
      "▁Sk": 3891,
      "▁themselves": 3892,
      "▁cross": 3893,
      "▁echo": 3894,
      "▁device": 3895,
      "pose": 3896,
      "▁games": 3897,
      "PL": 3898,
      "Window": 3899,
      "ises": 3900,
      "title": 3901,
      "Stream": 3902,
      "zt": 3903,
      "▁Sw": 3904,
      "▁role": 3905,
      "iant": 3906,
      "ku": 3907,
      "sequ": 3908,
      "▁late": 3909,
      "▁sold": 3910,
      "ря": 3911,
      "Comm": 3912,
      "▁entre": 3913,
      "▁dog": 3914,
      "device": 3915,
      "Par": 3916,
      "▁likely": 3917,
      "^{-": 3918,
      "▁len": 3919,
      "▁Paul": 3920,
      "▁tool": 3921,
      "Off": 3922,
      "▁famil": 3923,
      "▁draw": 3924,
      "apping": 3925,
      "▁events": 3926,
      "cret": 3927,
      "rought": 3928,
      "Content": 3929,
      "▁software": 3930,
      "ria": 3931,
      "msg": 3932,
      "gamma": 3933,
      "▁hear": 3934,
      "Oper": 3935,
      "▁yourself": 3936,
      "▁liter": 3937,
      "emp": 3938,
      "▁separ": 3939,
      "▁З": 3940,
      "▁title": 3941,
      "Method": 3942,
      "mathrm": 3943,
      "▁slow": 3944,
      "▁Rom": 3945,
      "!!": 3946,
      "▁tax": 3947,
      "ска": 3948,
      "emplate": 3949,
      "oi": 3950,
      "▁Art": 3951,
      "false": 3952,
      "astic": 3953,
      "сть": 3954,
      "ocket": 3955,
      "▁ens": 3956,
      "TO": 3957,
      "amente": 3958,
      "local": 3959,
      "chie": 3960,
      "▁pan": 3961,
      "ний": 3962,
      "chema": 3963,
      "▁North": 3964,
      "зо": 3965,
      "▁>=": 3966,
      "Aut": 3967,
      "▁dig": 3968,
      "▁seems": 3969,
      "▁morning": 3970,
      "sole": 3971,
      "umer": 3972,
      "delta": 3973,
      "ité": 3974,
      "abase": 3975,
      "raf": 3976,
      "▁observ": 3977,
      "▁Est": 3978,
      "▁seg": 3979,
      "▁[]": 3980,
      "▁Pres": 3981,
      "iful": 3982,
      "push": 3983,
      "▁Off": 3984,
      "ipe": 3985,
      "ati": 3986,
      "▁dim": 3987,
      "ceed": 3988,
      "Ent": 3989,
      "____": 3990,
      "entry": 3991,
      "▁fight": 3992,
      "▁cred": 3993,
      "▁OR": 3994,
      "▁Dep": 3995,
      "${": 3996,
      "лен": 3997,
      "Create": 3998,
      "▁April": 3999,
      "ministr": 4000,
      "FL": 4001,
      "▁Ap": 4002,
      "▁Here": 4003,
      "private": 4004,
      "Instance": 4005,
      "iem": 4006,
      "▁office": 4007,
      "▁third": 4008,
      "▁update": 4009,
      "Line": 4010,
      "tag": 4011,
      "▁especially": 4012,
      "▁года": 4013,
      "▁cu": 4014,
      "▁kill": 4015,
      "aught": 4016,
      "▁swe": 4017,
      "Options": 4018,
      "IM": 4019,
      "CC": 4020,
      "▁compan": 4021,
      "just": 4022,
      "▁While": 4023,
      "izer": 4024,
      "▁мо": 4025,
      "ке": 4026,
      "▁auto": 4027,
      "▁band": 4028,
      "мен": 4029,
      "iques": 4030,
      "▁ple": 4031,
      "NO": 4032,
      "▁OF": 4033,
      "▁song": 4034,
      "▁Acc": 4035,
      "EXT": 4036,
      "ensor": 4037,
      "ining": 4038,
      "▁lat": 4039,
      "big": 4040,
      "▁King": 4041,
      "och": 4042,
      "si": 4043,
      "▁Hist": 4044,
      "▁quality": 4045,
      "mode": 4046,
      "▁opportun": 4047,
      "▁wouldn": 4048,
      ":**": 4049,
      "output": 4050,
      "▁feet": 4051,
      "▁mis": 4052,
      "df": 4053,
      "aging": 4054,
      "▁ме": 4055,
      "▁tro": 4056,
      "▁defined": 4057,
      "▁review": 4058,
      "▁Fil": 4059,
      ">>": 4060,
      "▁princip": 4061,
      "Base": 4062,
      "dict": 4063,
      "verage": 4064,
      "icient": 4065,
      "IF": 4066,
      "▁hit": 4067,
      "Page": 4068,
      "▁perm": 4069,
      "cel": 4070,
      "ít": 4071,
      "▁express": 4072,
      "▁indic": 4073,
      "▁September": 4074,
      "image": 4075,
      "▁products": 4076,
      "▁media": 4077,
      "change": 4078,
      "igger": 4079,
      "▁send": 4080,
      "last": 4081,
      "ming": 4082,
      "pa": 4083,
      "uary": 4084,
      "▁speak": 4085,
      "ный": 4086,
      "ще": 4087,
      "ysis": 4088,
      "lying": 4089,
      "▁ч": 4090,
      "like": 4091,
      "ры": 4092,
      "ві": 4093,
      "▁Mich": 4094,
      "MO": 4095,
      "▁Jah": 4096,
      "ensive": 4097,
      "▁share": 4098,
      "▁development": 4099,
      "CP": 4100,
      "spec": 4101,
      "▁fast": 4102,
      "het": 4103,
      "HO": 4104,
      "▁particip": 4105,
      "Block": 4106,
      "▁viol": 4107,
      "▁frame": 4108,
      "▁qual": 4109,
      "tre": 4110,
      "▁Ф": 4111,
      "▁toward": 4112,
      "fg": 4113,
      "Box": 4114,
      "Column": 4115,
      "▁milit": 4116,
      "▁March": 4117,
      "▁various": 4118,
      "pass": 4119,
      "▁Park": 4120,
      "▁Ben": 4121,
      "Frame": 4122,
      "▁normal": 4123,
      "open": 4124,
      "px": 4125,
      "▁phone": 4126,
      "▁Even": 4127,
      "▁ma": 4128,
      "ibrary": 4129,
      "Start": 4130,
      "idden": 4131,
      "rho": 4132,
      "graph": 4133,
      "acing": 4134,
      "'.": 4135,
      "arter": 4136,
      "mes": 4137,
      "inst": 4138,
      "▁ir": 4139,
      "active": 4140,
      "▁fem": 4141,
      "▁moved": 4142,
      "▁store": 4143,
      "▁price": 4144,
      "\").": 4145,
      "berg": 4146,
      "▁nov": 4147,
      "▁card": 4148,
      "ellow": 4149,
      "▁party": 4150,
      "▁Mor": 4151,
      "ael": 4152,
      "▁percent": 4153,
      "▁training": 4154,
      "▁ing": 4155,
      "imer": 4156,
      "▁Sam": 4157,
      "Default": 4158,
      "▁fuck": 4159,
      "▁complete": 4160,
      "uid": 4161,
      "▁details": 4162,
      "▁led": 4163,
      "Point": 4164,
      "▁Count": 4165,
      "▁regard": 4166,
      "zo": 4167,
      "▁Bro": 4168,
      "▁recogn": 4169,
      "▁Hol": 4170,
      "UM": 4171,
      "element": 4172,
      "Mode": 4173,
      "▁exam": 4174,
      "▁EX": 4175,
      "Image": 4176,
      "verse": 4177,
      "riter": 4178,
      "soft": 4179,
      "▁introdu": 4180,
      "▁surpr": 4181,
      "Buffer": 4182,
      "lector": 4183,
      "aren": 4184,
      "anged": 4185,
      "▁Pat": 4186,
      "▁Pal": 4187,
      "▁contr": 4188,
      "Handler": 4189,
      "▁features": 4190,
      "iple": 4191,
      "▁CON": 4192,
      "Fil": 4193,
      "▁Port": 4194,
      "▁thinking": 4195,
      "doc": 4196,
      "wer": 4197,
      "▁worked": 4198,
      "PC": 4199,
      "cm": 4200,
      "dat": 4201,
      "PRO": 4202,
      "▁Every": 4203,
      "▁era": 4204,
      "▁First": 4205,
      "gn": 4206,
      "▁immedi": 4207,
      "ovember": 4208,
      "apan": 4209,
      "▁extra": 4210,
      "▁section": 4211,
      "▁June": 4212,
      "▁via": 4213,
      "▁gone": 4214,
      "come": 4215,
      "▁stri": 4216,
      "^\\": 4217,
      "antly": 4218,
      "▁arch": 4219,
      "Source": 4220,
      "▁conv": 4221,
      "▁London": 4222,
      "Number": 4223,
      "▁questions": 4224,
      "andid": 4225,
      "▁played": 4226,
      "env": 4227,
      "▁School": 4228,
      "▁natural": 4229,
      "can": 4230,
      "▁news": 4231,
      "DR": 4232,
      "▁chall": 4233,
      "▁Soc": 4234,
      "▁э": 4235,
      "▁attempt": 4236,
      "*}": 4237,
      "Null": 4238,
      "rote": 4239,
      "▁bi": 4240,
      "▁written": 4241,
      "▁blood": 4242,
      "▁happened": 4243,
      "▁cause": 4244,
      "ashing": 4245,
      "▁William": 4246,
      "adem": 4247,
      "▁brought": 4248,
      "▁display": 4249,
      "ima": 4250,
      "▁finally": 4251,
      "tab": 4252,
      "▁returned": 4253,
      "ных": 4254,
      "nie": 4255,
      "▁q": 4256,
      "▁hers": 4257,
      "▁Pre": 4258,
      "▁dou": 4259,
      "buffer": 4260,
      "▁effort": 4261,
      "aine": 4262,
      "xy": 4263,
      "▁histor": 4264,
      "enu": 4265,
      "▁arriv": 4266,
      "▁Dem": 4267,
      "▁favor": 4268,
      "▁handle": 4269,
      "SET": 4270,
      "▁Public": 4271,
      "rupt": 4272,
      "▁ur": 4273,
      "▁force": 4274,
      "▁és": 4275,
      "ube": 4276,
      "Pre": 4277,
      "рі": 4278,
      "iny": 4279,
      "theta": 4280,
      "isf": 4281,
      "▁national": 4282,
      "Equal": 4283,
      "rench": 4284,
      "▁wife": 4285,
      "▁capt": 4286,
      "▁Inter": 4287,
      "tau": 4288,
      "▁sleep": 4289,
      "../../": 4290,
      "▁issue": 4291,
      "▁member": 4292,
      "▁await": 4293,
      "▁Dan": 4294,
      "zi": 4295,
      "inate": 4296,
      "▁sym": 4297,
      "chan": 4298,
      "▁Jack": 4299,
      "▁English": 4300,
      "▁sz": 4301,
      "ributes": 4302,
      "▁ign": 4303,
      "ál": 4304,
      "▁appear": 4305,
      "rad": 4306,
      "idge": 4307,
      "▁couple": 4308,
      "▁ship": 4309,
      "lig": 4310,
      "web": 4311,
      "▁usually": 4312,
      "▁ready": 4313,
      "▁vill": 4314,
      "▁Why": 4315,
      "ebru": 4316,
      "▁grad": 4317,
      "ords": 4318,
      "▁inf": 4319,
      "▁loss": 4320,
      "▁od": 4321,
      "▁Phil": 4322,
      "server": 4323,
      "▁Up": 4324,
      "▁buff": 4325,
      "▁filename": 4326,
      "ABLE": 4327,
      "iting": 4328,
      "efore": 4329,
      "()->": 4330,
      "▁conditions": 4331,
      "vm": 4332,
      "eld": 4333,
      "itz": 4334,
      "▁Trans": 4335,
      "▁weight": 4336,
      "▁higher": 4337,
      "▁rate": 4338,
      "▁accom": 4339,
      "vider": 4340,
      "OM": 4341,
      "▁ways": 4342,
      "coming": 4343,
      "▁lock": 4344,
      "▁etc": 4345,
      "▁avec": 4346,
      "▁takes": 4347,
      "▁Char": 4348,
      "▁November": 4349,
      "method": 4350,
      "▁Austral": 4351,
      "▁America": 4352,
      "long": 4353,
      "cember": 4354,
      "▁political": 4355,
      "flow": 4356,
      "▁maybe": 4357,
      "▁amb": 4358,
      "Layout": 4359,
      "iled": 4360,
      "omen": 4361,
      "ola": 4362,
      "icip": 4363,
      "partial": 4364,
      "True": 4365,
      "▁floor": 4366,
      "▁Def": 4367,
      "▁concern": 4368,
      "yr": 4369,
      "▁shows": 4370,
      "ih": 4371,
      "▁answer": 4372,
      "acc": 4373,
      "▁ball": 4374,
      "▁Rev": 4375,
      "▁sun": 4376,
      "▁quickly": 4377,
      "▁somet": 4378,
      "mente": 4379,
      "▁Mal": 4380,
      "undred": 4381,
      "▁issues": 4382,
      "ecause": 4383,
      "pes": 4384,
      "▁player": 4385,
      "▁parents": 4386,
      "▁popular": 4387,
      "▁mode": 4388,
      "▁mention": 4389,
      "NE": 4390,
      "Load": 4391,
      "▁regular": 4392,
      "aved": 4393,
      "?:": 4394,
      "year": 4395,
      "func": 4396,
      "▁performance": 4397,
      "▁July": 4398,
      "thern": 4399,
      "▁website": 4400,
      "ford": 4401,
      "PR": 4402,
      "ela": 4403,
      "level": 4404,
      "uit": 4405,
      "flags": 4406,
      "▁worth": 4407,
      "▁correspon": 4408,
      "▁British": 4409,
      "sim": 4410,
      "▁alone": 4411,
      "▁har": 4412,
      "▁ones": 4413,
      "obile": 4414,
      "▁dru": 4415,
      "chi": 4416,
      "▁David": 4417,
      "▁problems": 4418,
      "▁column": 4419,
      "();\r": 4420,
      "ZE": 4421,
      "▁relig": 4422,
      "ological": 4423,
      "▁region": 4424,
      "ady": 4425,
      "IO": 4426,
      "ander": 4427,
      "Net": 4428,
      "▁built": 4429,
      "▁install": 4430,
      "▁approach": 4431,
      "Cur": 4432,
      "▁fine": 4433,
      "▁talking": 4434,
      "▁changes": 4435,
      "Style": 4436,
      "▁Mart": 4437,
      "лю": 4438,
      "response": 4439,
      "teger": 4440,
      "{\r": 4441,
      "irit": 4442,
      "▁protected": 4443,
      "▁rele": 4444,
      "ership": 4445,
      "тель": 4446,
      "unsigned": 4447,
      "ialize": 4448,
      "▁https": 4449,
      "Tag": 4450,
      "▁$(": 4451,
      "more": 4452,
      "ypes": 4453,
      "▁stream": 4454,
      "etch": 4455,
      "▁engine": 4456,
      "KE": 4457,
      "cmd": 4458,
      "script": 4459,
      "ttp": 4460,
      "▁avoid": 4461,
      "▁terr": 4462,
      "▁rock": 4463,
      "▁ful": 4464,
      "Update": 4465,
      "▁environment": 4466,
      "▁prec": 4467,
      "▁са": 4468,
      "▁cases": 4469,
      "▁offset": 4470,
      "▁rais": 4471,
      "lib": 4472,
      "ées": 4473,
      "aa": 4474,
      "yt": 4475,
      "▁arr": 4476,
      "opyright": 4477,
      "first": 4478,
      "▁util": 4479,
      "▁feature": 4480,
      "posed": 4481,
      "ffect": 4482,
      "жа": 4483,
      "itude": 4484,
      "ements": 4485,
      "asc": 4486,
      "ador": 4487,
      "lections": 4488,
      "▁club": 4489,
      "]{": 4490,
      "▁*)": 4491,
      "ство": 4492,
      "▁imm": 4493,
      "▁former": 4494,
      "▁rights": 4495,
      "▁decided": 4496,
      "▁rev": 4497,
      "▁ment": 4498,
      "ani": 4499,
      "▁stru": 4500,
      "▁attention": 4501,
      "artment": 4502,
      "▁Ital": 4503,
      "alle": 4504,
      "▁bis": 4505,
      "gener": 4506,
      "▁integr": 4507,
      "ello": 4508,
      "rypt": 4509,
      "▁achie": 4510,
      "nes": 4511,
      "▁stra": 4512,
      "sb": 4513,
      "▁types": 4514,
      "▁RE": 4515,
      "Init": 4516,
      "▁comment": 4517,
      "▁addition": 4518,
      "▁ID": 4519,
      "ART": 4520,
      "FO": 4521,
      "щи": 4522,
      "Conne": 4523,
      "▁squ": 4524,
      "▁considered": 4525,
      "idad": 4526,
      "▁October": 4527,
      "cial": 4528,
      "▁Of": 4529,
      "▁travel": 4530,
      "▁boy": 4531,
      "').": 4532,
      "uy": 4533,
      "illa": 4534,
      "istry": 4535,
      "▁va": 4536,
      "▁Che": 4537,
      "ERT": 4538,
      "ende": 4539,
      "ungen": 4540,
      "aby": 4541,
      "▁Rober": 4542,
      "▁playing": 4543,
      "ils": 4544,
      "▁sam": 4545,
      "▁execut": 4546,
      "▁Us": 4547,
      "▁mut": 4548,
      "▁bal": 4549,
      "asse": 4550,
      "▁kids": 4551,
      "▁financ": 4552,
      "gor": 4553,
      "▁Sec": 4554,
      "bert": 4555,
      "▁High": 4556,
      "▁је": 4557,
      "▁kept": 4558,
      "button": 4559,
      "itory": 4560,
      "▁Rem": 4561,
      "▁DE": 4562,
      "▁reach": 4563,
      "▁bur": 4564,
      "Label": 4565,
      "át": 4566,
      "ago": 4567,
      "▁passed": 4568,
      "▁behav": 4569,
      "xFF": 4570,
      "▁Return": 4571,
      "STR": 4572,
      "▁Les": 4573,
      "▁ord": 4574,
      "ala": 4575,
      "inger": 4576,
      "▁Since": 4577,
      "▁experi": 4578,
      "▁shall": 4579,
      "▁star": 4580,
      "non": 4581,
      "▁gun": 4582,
      "▁Bel": 4583,
      "▁obj": 4584,
      "ares": 4585,
      "rs": 4586,
      "▁weeks": 4587,
      "nen": 4588,
      "▁Stre": 4589,
      "oring": 4590,
      "▁î": 4591,
      "▁serious": 4592,
      "times": 4593,
      "▁House": 4594,
      "▁roll": 4595,
      "▁register": 4596,
      "▁module": 4597,
      "▁applic": 4598,
      "IR": 4599,
      "▁cook": 4600,
      "aux": 4601,
      "▁save": 4602,
      "▁Cr": 4603,
      ",\r": 4604,
      "▁states": 4605,
      "▁empty": 4606,
      "▁autom": 4607,
      "figure": 4608,
      "iance": 4609,
      "▁happy": 4610,
      "▁fn": 4611,
      "▁jud": 4612,
      "▁hat": 4613,
      "ACK": 4614,
      "▁Fe": 4615,
      "$-": 4616,
      "ivil": 4617,
      "oted": 4618,
      "▁sizeof": 4619,
      "▁situation": 4620,
      "▁lives": 4621,
      "▁feeling": 4622,
      "▁risk": 4623,
      "▁January": 4624,
      "▁Object": 4625,
      "▁recomm": 4626,
      "▁вы": 4627,
      "▁potential": 4628,
      "eah": 4629,
      "▁complex": 4630,
      "printf": 4631,
      "istance": 4632,
      "irth": 4633,
      "lik": 4634,
      "aste": 4635,
      "▁whose": 4636,
      "Arg": 4637,
      "▁modern": 4638,
      "iones": 4639,
      "▁че": 4640,
      "▁sett": 4641,
      "▁Mag": 4642,
      "ae": 4643,
      "▁condition": 4644,
      "Length": 4645,
      "▁fit": 4646,
      "ounds": 4647,
      "▁changed": 4648,
      "▁guy": 4649,
      "filter": 4650,
      "atever": 4651,
      "éd": 4652,
      "remove": 4653,
      "▁hop": 4654,
      "▁Out": 4655,
      "▁Rich": 4656,
      "child": 4657,
      "▁included": 4658,
      "$\\": 4659,
      "▁Tom": 4660,
      "eline": 4661,
      "▁sometimes": 4662,
      "▁drink": 4663,
      "▁quant": 4664,
      "▁please": 4665,
      "▁Int": 4666,
      "rief": 4667,
      "▁exactly": 4668,
      "cing": 4669,
      "▁allowed": 4670,
      "build": 4671,
      "▁beautiful": 4672,
      "▁Well": 4673,
      "▁looks": 4674,
      "▁ü": 4675,
      "▁chance": 4676,
      "▁wrote": 4677,
      "▁nor": 4678,
      "▁failed": 4679,
      "Met": 4680,
      "▁prior": 4681,
      "▁hundred": 4682,
      "ской": 4683,
      "oria": 4684,
      "▁cy": 4685,
      "▁web": 4686,
      "▁mess": 4687,
      "leq": 4688,
      "dy": 4689,
      "tex": 4690,
      "▁anim": 4691,
      "atur": 4692,
      "▁structure": 4693,
      "option": 4694,
      "▁actual": 4695,
      "▁Franc": 4696,
      "enced": 4697,
      ".</": 4698,
      "▁flow": 4699,
      "▁Afr": 4700,
      "det": 4701,
      "▁Ke": 4702,
      "ety": 4703,
      "ский": 4704,
      "▁stuff": 4705,
      "itter": 4706,
      "▁args": 4707,
      "▁album": 4708,
      "▁]": 4709,
      "ugin": 4710,
      "SU": 4711,
      "Per": 4712,
      "▁circ": 4713,
      "▁correct": 4714,
      "▁lines": 4715,
      "▁completely": 4716,
      "known": 4717,
      "▁tree": 4718,
      "root": 4719,
      "▁Japan": 4720,
      "oles": 4721,
      "endo": 4722,
      "▁location": 4723,
      "▁Х": 4724,
      "▁mid": 4725,
      "aling": 4726,
      "GL": 4727,
      "iano": 4728,
      "▁{}": 4729,
      "lang": 4730,
      "▁equip": 4731,
      "ERROR": 4732,
      "▁memory": 4733,
      "▁(\"": 4734,
      "▁nature": 4735,
      "google": 4736,
      "abs": 4737,
      "BC": 4738,
      "▁gets": 4739,
      "Command": 4740,
      "TER": 4741,
      "aled": 4742,
      "cp": 4743,
      "▁purch": 4744,
      "▁Den": 4745,
      "▁herself": 4746,
      "▁Ir": 4747,
      "▁sie": 4748,
      "gar": 4749,
      "Ap": 4750,
      "▁nel": 4751,
      "ota": 4752,
      ")]": 4753,
      "cor": 4754,
      "acht": 4755,
      "(*": 4756,
      "irtual": 4757,
      "▁police": 4758,
      "▁skin": 4759,
      "ship": 4760,
      "efined": 4761,
      "aughter": 4762,
      "inding": 4763,
      "▁Sl": 4764,
      "▁influ": 4765,
      "▁mount": 4766,
      "▁az": 4767,
      "▁wood": 4768,
      "otes": 4769,
      "ega": 4770,
      "▁according": 4771,
      "▁namespace": 4772,
      "Delta": 4773,
      "stant": 4774,
      "▁published": 4775,
      "aker": 4776,
      "▁Black": 4777,
      "ln": 4778,
      "▁industry": 4779,
      "SON": 4780,
      "Rep": 4781,
      "▁choice": 4782,
      "▁inn": 4783,
      "kl": 4784,
      "▁pal": 4785,
      "▁aud": 4786,
      "▁standard": 4787,
      "▁knowledge": 4788,
      "**,": 4789,
      "▁Frank": 4790,
      "sq": 4791,
      "Output": 4792,
      "▁för": 4793,
      "Valid": 4794,
      "ugh": 4795,
      "▁books": 4796,
      "▁James": 4797,
      "ko": 4798,
      "▁companies": 4799,
      "anning": 4800,
      "▁vict": 4801,
      "▁repl": 4802,
      "▁sche": 4803,
      "▁happen": 4804,
      "fty": 4805,
      "acity": 4806,
      "ira": 4807,
      "▁implement": 4808,
      "ского": 4809,
      "number": 4810,
      "SH": 4811,
      "iro": 4812,
      "▁fear": 4813,
      "▁touch": 4814,
      "▁cast": 4815,
      "ASS": 4816,
      "▁consist": 4817,
      "Task": 4818,
      "▁sig": 4819,
      "ба": 4820,
      "igation": 4821,
      "▁Most": 4822,
      "▁Der": 4823,
      "}(\\": 4824,
      ":\"": 4825,
      "▁Fig": 4826,
      "ali": 4827,
      "iner": 4828,
      "'),": 4829,
      "▁Coun": 4830,
      "(_": 4831,
      "▁distributed": 4832,
      "NAME": 4833,
      "▁mur": 4834,
      "▁career": 4835,
      "~~": 4836,
      "pers": 4837,
      "aries": 4838,
      "enses": 4839,
      "▁Also": 4840,
      "Version": 4841,
      "▁unique": 4842,
      "▁France": 4843,
      "BA": 4844,
      "ky": 4845,
      "▁Febru": 4846,
      "▁died": 4847,
      "omega": 4848,
      "▁Form": 4849,
      "▁width": 4850,
      "tocol": 4851,
      "▁lie": 4852,
      "She": 4853,
      "ém": 4854,
      "▁straight": 4855,
      "▁nach": 4856,
      "▁stood": 4857,
      "olds": 4858,
      "▁goes": 4859,
      "cell": 4860,
      "▁till": 4861,
      "LI": 4862,
      "draw": 4863,
      "▁satisf": 4864,
      "▁reading": 4865,
      "ATION": 4866,
      "▁Are": 4867,
      "▁Ac": 4868,
      ")*": 4869,
      "▁additional": 4870,
      "wood": 4871,
      "cil": 4872,
      "пу": 4873,
      "ULT": 4874,
      "▁bill": 4875,
      "mas": 4876,
      "ania": 4877,
      "су": 4878,
      "anz": 4879,
      "height": 4880,
      "jo": 4881,
      "▁dos": 4882,
      "\\\"": 4883,
      "▁/>": 4884,
      "▁production": 4885,
      "iger": 4886,
      "▁ст": 4887,
      "show": 4888,
      "▁population": 4889,
      "▁park": 4890,
      "▁Ze": 4891,
      "▁necessary": 4892,
      "▁trust": 4893,
      "▁shown": 4894,
      "module": 4895,
      "GE": 4896,
      "▁lay": 4897,
      "▁announ": 4898,
      "▁className": 4899,
      "▁calcul": 4900,
      "Function": 4901,
      "▁Sal": 4902,
      "OK": 4903,
      "TP": 4904,
      "▁entry": 4905,
      "▁Stud": 4906,
      "▁items": 4907,
      "▁security": 4908,
      "Entry": 4909,
      "float": 4910,
      "ls": 4911,
      "ibly": 4912,
      "▁contribut": 4913,
      "▁Check": 4914,
      "MD": 4915,
      "▁improve": 4916,
      "Part": 4917,
      "▁systems": 4918,
      "Bl": 4919,
      "▁policy": 4920,
      "▁screen": 4921,
      "▁Any": 4922,
      "▁opened": 4923,
      "alloc": 4924,
      "▁December": 4925,
      "▁É": 4926,
      "▁email": 4927,
      "ader": 4928,
      "=>": 4929,
      "▁Hen": 4930,
      "▁info": 4931,
      "▁float": 4932,
      "▁switch": 4933,
      "ран": 4934,
      "urance": 4935,
      "▁assum": 4936,
      "ustr": 4937,
      "▁groups": 4938,
      "▁Read": 4939,
      "▁wat": 4940,
      "Sp": 4941,
      "вер": 4942,
      "RAN": 4943,
      "hib": 4944,
      "ALL": 4945,
      "▁hus": 4946,
      "Spec": 4947,
      "\"))": 4948,
      "▁French": 4949,
      "▁Class": 4950,
      "▁president": 4951,
      "▁definit": 4952,
      "▁Nor": 4953,
      "▁Thom": 4954,
      "aign": 4955,
      "Width": 4956,
      "Do": 4957,
      "▁{@": 4958,
      "agon": 4959,
      "▁Lu": 4960,
      "▁followed": 4961,
      "MM": 4962,
      "asons": 4963,
      "tmp": 4964,
      "▁throws": 4965,
      "ITY": 4966,
      "ном": 4967,
      "▁fair": 4968,
      "▁pen": 4969,
      "ég": 4970,
      "▁interface": 4971,
      "▁saf": 4972,
      "oon": 4973,
      "Back": 4974,
      "▁speed": 4975,
      "▁extends": 4976,
      "empty": 4977,
      "▁пере": 4978,
      "▁proper": 4979,
      "▁driv": 4980,
      "фи": 4981,
      "▁center": 4982,
      "header": 4983,
      "▁})": 4984,
      "wa": 4985,
      "▁middle": 4986,
      "▁choose": 4987,
      "▁Stad": 4988,
      "SO": 4989,
      "Factory": 4990,
      "Dev": 4991,
      "icles": 4992,
      "▁application": 4993,
      "▁models": 4994,
      "pite": 4995,
      "cap": 4996,
      "xi": 4997,
      "ospital": 4998,
      "▁dream": 4999,
      "END": 5000,
      "▁contract": 5001,
      "icrosoft": 5002,
      "▁thous": 5003,
      "izes": 5004,
      "▁да": 5005,
      "▁CO": 5006,
      "▁direction": 5007,
      "▁``": 5008,
      "▁drive": 5009,
      "Max": 5010,
      "cia": 5011,
      "▁continu": 5012,
      "▁Alex": 5013,
      "▁gold": 5014,
      "▁prep": 5015,
      "▁origin": 5016,
      "▁rap": 5017,
      "Op": 5018,
      "ously": 5019,
      "▁areas": 5020,
      "PORT": 5021,
      "она": 5022,
      "▁safe": 5023,
      "▁professional": 5024,
      "apache": 5025,
      "▁temper": 5026,
      "sz": 5027,
      "▁unit": 5028,
      "▁cop": 5029,
      "eqn": 5030,
      "Listener": 5031,
      "▁format": 5032,
      "select": 5033,
      "▁comfort": 5034,
      "▁meant": 5035,
      "iday": 5036,
      "eme": 5037,
      "▁active": 5038,
      "▁note": 5039,
      "▁Mil": 5040,
      "only": 5041,
      "▁<=": 5042,
      "▁neigh": 5043,
      "ao": 5044,
      "▁blue": 5045,
      "▁TV": 5046,
      "Child": 5047,
      "▁reached": 5048,
      "Address": 5049,
      "ств": 5050,
      "▁closed": 5051,
      "inder": 5052,
      "olo": 5053,
      "▁alt": 5054,
      "▁adm": 5055,
      "Format": 5056,
      "UI": 5057,
      "▁Ham": 5058,
      "▁frequ": 5059,
      "▁independ": 5060,
      "▁easily": 5061,
      "▁Land": 5062,
      "▁tor": 5063,
      "ography": 5064,
      "infty": 5065,
      "▁Work": 5066,
      "iven": 5067,
      "▁County": 5068,
      "▁src": 5069,
      "}$,": 5070,
      "parse": 5071,
      "CD": 5072,
      "▁Cour": 5073,
      "▁fol": 5074,
      "Entity": 5075,
      "pgf": 5076,
      "▁China": 5077,
      "▁Sub": 5078,
      "hood": 5079,
      "▁fields": 5080,
      "▁yes": 5081,
      "rend": 5082,
      "▁towards": 5083,
      "▁staff": 5084,
      "▁Air": 5085,
      "▁station": 5086,
      "atives": 5087,
      "▁impact": 5088,
      "вы": 5089,
      "▁directly": 5090,
      "issions": 5091,
      "iva": 5092,
      "|\\": 5093,
      "Ptr": 5094,
      "▁Sant": 5095,
      "Pol": 5096,
      "▁progress": 5097,
      "itar": 5098,
      "▁parts": 5099,
      "▁plant": 5100,
      "▁absolut": 5101,
      "▁guess": 5102,
      "eqref": 5103,
      "▁tim": 5104,
      "▁Lou": 5105,
      "▁cool": 5106,
      "alu": 5107,
      "▁mouth": 5108,
      "них": 5109,
      "▁height": 5110,
      "gest": 5111,
      "▁Post": 5112,
      "▁board": 5113,
      "▁tit": 5114,
      "▁hour": 5115,
      "▁server": 5116,
      "▁players": 5117,
      "rier": 5118,
      "Link": 5119,
      "▁President": 5120,
      "](": 5121,
      "▁construct": 5122,
      "handle": 5123,
      "}$.": 5124,
      "rying": 5125,
      "▁shop": 5126,
      "iana": 5127,
      "exp": 5128,
      "Helper": 5129,
      "Offset": 5130,
      "aches": 5131,
      "▁connection": 5132,
      "▁difference": 5133,
      "service": 5134,
      "▁gas": 5135,
      "▁priv": 5136,
      "▁univers": 5137,
      "▁wish": 5138,
      "Rem": 5139,
      "Url": 5140,
      "geb": 5141,
      "So": 5142,
      "ensions": 5143,
      "Module": 5144,
      "SIZE": 5145,
      "▁prem": 5146,
      "window": 5147,
      "▁dies": 5148,
      "del": 5149,
      "▁row": 5150,
      "▁average": 5151,
      "xim": 5152,
      "▁pu": 5153,
      "anç": 5154,
      "Det": 5155,
      "ker": 5156,
      "ya": 5157,
      "▁Det": 5158,
      "▁på": 5159,
      "▁named": 5160,
      "▁decision": 5161,
      "win": 5162,
      "▁George": 5163,
      "arily": 5164,
      "▁solution": 5165,
      "▁multiple": 5166,
      "ategy": 5167,
      "▁learning": 5168,
      "▁secret": 5169,
      "DO": 5170,
      "▁nice": 5171,
      "////////////////": 5172,
      "Su": 5173,
      "itation": 5174,
      "▁join": 5175,
      "▁elements": 5176,
      "▁emer": 5177,
      "tilde": 5178,
      "▁dep": 5179,
      "▁shot": 5180,
      "▁platform": 5181,
      "othing": 5182,
      "My": 5183,
      "edia": 5184,
      "oms": 5185,
      "aily": 5186,
      "([": 5187,
      "▁dress": 5188,
      "▁official": 5189,
      "estern": 5190,
      "▁discover": 5191,
      "▁mi": 5192,
      "ные": 5193,
      "CA": 5194,
      "oding": 5195,
      "▁Found": 5196,
      "▁affect": 5197,
      "Vis": 5198,
      "stract": 5199,
      "iced": 5200,
      "debug": 5201,
      "▁related": 5202,
      "▁spect": 5203,
      "ushed": 5204,
      "сько": 5205,
      "▁bank": 5206,
      "▁cele": 5207,
      "AND": 5208,
      "olf": 5209,
      "ем": 5210,
      "▁fill": 5211,
      "▁gives": 5212,
      "▁бу": 5213,
      "aron": 5214,
      "▁Jes": 5215,
      "REG": 5216,
      "▁sudd": 5217,
      "dated": 5218,
      "vi": 5219,
      "▁gi": 5220,
      "send": 5221,
      "cpp": 5222,
      "▁spent": 5223,
      "ande": 5224,
      "▁operation": 5225,
      "process": 5226,
      "▁inform": 5227,
      "▁Free": 5228,
      "yond": 5229,
      "▁perhaps": 5230,
      "▁surv": 5231,
      "▁Loc": 5232,
      "▁concl": 5233,
      "▁раз": 5234,
      "▁Over": 5235,
      "hol": 5236,
      "raz": 5237,
      "Write": 5238,
      "▁giving": 5239,
      "rd": 5240,
      "instance": 5241,
      "▁released": 5242,
      "▁Ro": 5243,
      "RA": 5244,
      "▁practice": 5245,
      "▁graph": 5246,
      "▁increase": 5247,
      "▁figure": 5248,
      "Filter": 5249,
      "HECK": 5250,
      "idx": 5251,
      "▁glass": 5252,
      "ski": 5253,
      "comes": 5254,
      "▁cat": 5255,
      "▁cold": 5256,
      "goto": 5257,
      "ufact": 5258,
      "▁Copyright": 5259,
      "}}\\": 5260,
      "▁streng": 5261,
      "▁dir": 5262,
      "token": 5263,
      "▁occur": 5264,
      "arlier": 5265,
      "▁measure": 5266,
      "▁sec": 5267,
      "▁más": 5268,
      "▁Net": 5269,
      "▁argument": 5270,
      "▁sou": 5271,
      "▁moving": 5272,
      "▁prefer": 5273,
[...]
